[PAD]
[unused1]
[unused2]
[unused3]
[unused4]
[unused5]
[unused6]
[unused7]
[unused8]
[unused9]
[unused10]
[unused11]
[unused12]
[unused13]
[unused14]
[unused15]
[unused16]
[unused17]
[unused18]
[unused19]
[unused20]
[unused21]
[unused22]
[unused23]
[unused24]
[unused25]
[unused26]
[unused27]
[unused28]
[unused29]
[unused30]
[unused31]
[unused32]
[unused33]
[unused34]
[unused35]
[unused36]
[unused37]
[unused38]
[unused39]
[unused40]
[unused41]
[unused42]
[unused43]
[unused44]
[unused45]
[unused46]
[unused47]
[unused48]
[unused49]
[unused50]
[unused51]
[unused52]
[unused53]
[unused54]
[unused55]
[unused56]
[unused57]
[unused58]
[unused59]
[unused60]
[unused61]
[unused62]
[unused63]
[unused64]
[unused65]
[unused66]
[unused67]
[unused68]
[unused69]
[unused70]
[unused71]
[unused72]
[unused73]
[unused74]
[unused75]
[unused76]
[unused77]
[unused78]
[unused79]
[unused80]
[unused81]
[unused82]
[unused83]
[unused84]
[unused85]
[unused86]
[unused87]
[unused88]
[unused89]
[unused90]
[unused91]
[unused92]
[unused93]
[unused94]
[unused95]
[unused96]
[unused97]
[unused98]
[unused99]
[UNK]
[CLS]
[SEP]
[MASK]
<S>
<T>
!
"
#
$
%
&
'
(
)
*
+
,
-
.
/
0
1
2
3
4
5
6
7
8
9
:
;
<
=
>
?
@
[
\
]
^
_
a
b
c
d
e
f
g
h
i
j
k
l
m
n
o
p
q
r
s
t
u
v
w
x
y
z
{
|
}
~
Â£
Â¤
Â¥
Â§
Â©
Â«
Â®
Â°
Â±
Â²
Â³
Âµ
Â·
Â¹
Âº
Â»
Â¼
Ã—
ÃŸ
Ã¦
Ã·
Ã¸
Ä‘
Å‹
É”
É™
É¡
Ê°
Ë‡
Ëˆ
ËŠ
Ë‹
Ë
Ë
Ë™
Ëš
Ë¢
Î±
Î²
Î³
Î´
Îµ
Î·
Î¸
Î¹
Îº
Î»
Î¼
Î½
Î¿
Ï€
Ï
Ï‚
Ïƒ
Ï„
Ï…
Ï†
Ï‡
Ïˆ
Ï‰
Ð°
Ð±
Ð²
Ð³
Ð´
Ðµ
Ð¶
Ð·
Ð¸
Ðº
Ð»
Ð¼
Ð½
Ð¾
Ð¿
Ñ€
Ñ
Ñ‚
Ñƒ
Ñ„
Ñ…
Ñ†
Ñ‡
Ñˆ
Ñ‹
ÑŒ
Ñ
Ñ–
Ø§
Ø¨
Ø©
Øª
Ø¯
Ø±
Ø³
Ø¹
Ù„
Ù…
Ù†
Ù‡
Ùˆ
ÙŠ
Û©
à¸
à¸‡
à¸™
à¸¡
à¸¢
à¸£
à¸­
à¸²
à¹€
à¹‘
à¼‹
áƒ¦
á„€
á„
á„‚
á„ƒ
á„…
á„†
á„‡
á„ˆ
á„‰
á„‹
á„Œ
á„Ž
á„
á„
á„‘
á„’
á…¡
á…¢
á…£
á…¥
á…¦
á…§
á…¨
á…©
á…ª
á…¬
á…­
á…®
á…¯
á…²
á…³
á…´
á…µ
á†¨
á†«
á†¯
á†·
á†¸
á†º
á†»
á†¼
á—œ
áµƒ
áµ‰
áµ
áµ
áµ
áµ’
áµ˜
â€–
â€ž
â€ 
â€¢
â€¥
â€§
â€¨
â€°
â€²
â€³
â€¹
â€º
â€»
â€¿
â„
â±
âº
â¿
â‚
â‚‚
â‚ƒ
â‚„
â‚¬
â„ƒ
â„–
â„¢
â…°
â…±
â…²
â…³
â…´
â†
â†‘
â†’
â†“
â†”
â†—
â†˜
â‡’
âˆ€
âˆ’
âˆ•
âˆ™
âˆš
âˆž
âˆŸ
âˆ 
âˆ£
âˆ¥
âˆ©
âˆ®
âˆ¶
âˆ¼
âˆ½
â‰ˆ
â‰’
â‰¡
â‰¤
â‰¥
â‰¦
â‰§
â‰ª
â‰«
âŠ™
â‹…
â‹ˆ
â‹¯
âŒ’
â‘ 
â‘¡
â‘¢
â‘£
â‘¤
â‘¥
â‘¦
â‘§
â‘¨
â‘©
â‘´
â‘µ
â‘¶
â‘·
â‘¸
â’ˆ
â’‰
â’Š
â’‹
â“’
â“”
â“˜
â”€
â”
â”‚
â”ƒ
â”…
â”†
â”Š
â”Œ
â””
â”œ
â”£
â•
â•‘
â•š
â•ž
â• 
â•­
â•®
â•¯
â•°
â•±
â•³
â–‚
â–ƒ
â–…
â–‡
â–ˆ
â–‰
â–‹
â–Œ
â–
â–Ž
â– 
â–¡
â–ª
â–«
â–¬
â–²
â–³
â–¶
â–º
â–¼
â–½
â—†
â—‡
â—‹
â—Ž
â—
â—•
â— 
â—¢
â—¤
â˜€
â˜…
â˜†
â˜•
â˜ž
â˜º
â˜¼
â™€
â™‚
â™ 
â™¡
â™£
â™¥
â™¦
â™ª
â™«
â™¬
âœˆ
âœ”
âœ•
âœ–
âœ¦
âœ¨
âœª
âœ°
âœ¿
â€
â¤
âžœ
âž¤
â¦¿
ã€
ã€‚
ã€ƒ
ã€…
ã€‡
ã€ˆ
ã€‰
ã€Š
ã€‹
ã€Œ
ã€
ã€Ž
ã€
ã€
ã€‘
ã€“
ã€”
ã€•
ã€–
ã€—
ã€œ
ã€
ã€ž
ã
ã‚
ãƒ
ã„
ã†
ã‡
ãˆ
ãŠ
ã‹
ã
ã
ã‘
ã“
ã•
ã—
ã™
ã›
ã
ãŸ
ã¡
ã£
ã¤
ã¦
ã¨
ãª
ã«
ã¬
ã­
ã®
ã¯
ã²
ãµ
ã¸
ã»
ã¾
ã¿
ã‚€
ã‚
ã‚‚
ã‚ƒ
ã‚„
ã‚…
ã‚†
ã‚‡
ã‚ˆ
ã‚‰
ã‚Š
ã‚‹
ã‚Œ
ã‚
ã‚
ã‚’
ã‚“
ã‚œ
ã‚
ã‚¡
ã‚¢
ã‚£
ã‚¤
ã‚¥
ã‚¦
ã‚§
ã‚¨
ã‚©
ã‚ª
ã‚«
ã‚­
ã‚¯
ã‚±
ã‚³
ã‚µ
ã‚·
ã‚¹
ã‚»
ã‚½
ã‚¿
ãƒ
ãƒƒ
ãƒ„
ãƒ†
ãƒˆ
ãƒŠ
ãƒ‹
ãƒŒ
ãƒ
ãƒŽ
ãƒ
ãƒ’
ãƒ•
ãƒ˜
ãƒ›
ãƒž
ãƒŸ
ãƒ 
ãƒ¡
ãƒ¢
ãƒ£
ãƒ¤
ãƒ¥
ãƒ¦
ãƒ§
ãƒ¨
ãƒ©
ãƒª
ãƒ«
ãƒ¬
ãƒ­
ãƒ¯
ãƒ²
ãƒ³
ãƒ¶
ãƒ»
ãƒ¼
ãƒ½
ã„…
ã„†
ã„‡
ã„‰
ã„‹
ã„Œ
ã„
ã„Ž
ã„
ã„’
ã„š
ã„›
ã„ž
ã„Ÿ
ã„¢
ã„¤
ã„¥
ã„§
ã„¨
ã†
ãˆ¦
ãŠ£
ãŽ¡
ã—Ž
ä¸€
ä¸
ä¸ƒ
ä¸‡
ä¸ˆ
ä¸‰
ä¸Š
ä¸‹
ä¸
ä¸Ž
ä¸
ä¸‘
ä¸“
ä¸”
ä¸•
ä¸–
ä¸˜
ä¸™
ä¸š
ä¸›
ä¸œ
ä¸
ä¸ž
ä¸Ÿ
ä¸¡
ä¸¢
ä¸¤
ä¸¥
ä¸¦
ä¸§
ä¸¨
ä¸ª
ä¸«
ä¸­
ä¸°
ä¸²
ä¸´
ä¸¶
ä¸¸
ä¸¹
ä¸º
ä¸»
ä¸¼
ä¸½
ä¸¾
ä¸¿
ä¹‚
ä¹ƒ
ä¹…
ä¹ˆ
ä¹‰
ä¹‹
ä¹Œ
ä¹
ä¹Ž
ä¹
ä¹
ä¹’
ä¹“
ä¹”
ä¹–
ä¹—
ä¹˜
ä¹™
ä¹œ
ä¹
ä¹ž
ä¹Ÿ
ä¹ 
ä¹¡
ä¹¦
ä¹©
ä¹°
ä¹±
ä¹³
ä¹¾
äº€
äº‚
äº†
äºˆ
äº‰
äº‹
äºŒ
äºŽ
äº
äº‘
äº’
äº”
äº•
äº˜
äº™
äºš
äº›
äºœ
äºž
äºŸ
äº¡
äº¢
äº¤
äº¥
äº¦
äº§
äº¨
äº©
äº«
äº¬
äº­
äº®
äº²
äº³
äºµ
äºº
äº¿
ä»€
ä»
ä»ƒ
ä»„
ä»…
ä»†
ä»‡
ä»Š
ä»‹
ä»
ä»Ž
ä»
ä»‘
ä»“
ä»”
ä»•
ä»–
ä»—
ä»˜
ä»™
ä»
ä»ž
ä»Ÿ
ä»£
ä»¤
ä»¥
ä»¨
ä»ª
ä»¬
ä»®
ä»°
ä»²
ä»¶
ä»·
ä»»
ä»½
ä»¿
ä¼
ä¼‰
ä¼Š
ä¼
ä¼Ž
ä¼
ä¼
ä¼‘
ä¼•
ä¼—
ä¼˜
ä¼™
ä¼š
ä¼
ä¼ž
ä¼Ÿ
ä¼ 
ä¼¢
ä¼¤
ä¼¦
ä¼ª
ä¼«
ä¼¯
ä¼°
ä¼´
ä¼¶
ä¼¸
ä¼º
ä¼¼
ä¼½
ä½ƒ
ä½†
ä½‡
ä½ˆ
ä½
ä½Ž
ä½
ä½
ä½‘
ä½“
ä½”
ä½•
ä½—
ä½˜
ä½™
ä½š
ä½›
ä½œ
ä½
ä½ž
ä½Ÿ
ä½ 
ä½¢
ä½£
ä½¤
ä½¥
ä½©
ä½¬
ä½¯
ä½°
ä½³
ä½µ
ä½¶
ä½»
ä½¼
ä½¿
ä¾ƒ
ä¾„
ä¾†
ä¾ˆ
ä¾‹
ä¾
ä¾
ä¾‘
ä¾–
ä¾—
ä¾›
ä¾
ä¾ 
ä¾¡
ä¾£
ä¾¥
ä¾¦
ä¾§
ä¾¨
ä¾¬
ä¾®
ä¾¯
ä¾µ
ä¾¶
ä¾·
ä¾¿
ä¿‚
ä¿ƒ
ä¿„
ä¿Š
ä¿Ž
ä¿
ä¿
ä¿‘
ä¿—
ä¿˜
ä¿š
ä¿
ä¿ž
ä¿Ÿ
ä¿ 
ä¿¡
ä¿¨
ä¿©
ä¿ª
ä¿¬
ä¿­
ä¿®
ä¿¯
ä¿±
ä¿³
ä¿¸
ä¿º
ä¿¾
å€†
å€‰
å€‹
å€Œ
å€
å€
å€‘
å€’
å€”
å€–
å€˜
å€™
å€š
å€œ
å€Ÿ
å€¡
å€¤
å€¦
å€©
å€ª
å€«
å€¬
å€­
å€¶
å€º
å€¼
å€¾
åƒ
å‡
åˆ
å‰
åŒ
åŽ
å
å•
åš
åœ
å¥
å´
åµ
å¶
å·
å»
å½
å¿
å‚€
å‚…
å‚
å‚‘
å‚˜
å‚™
å‚š
å‚¢
å‚£
å‚¥
å‚¨
å‚©
å‚¬
å‚­
å‚²
å‚³
å‚µ
å‚·
å‚»
å‚¾
åƒ…
åƒ
åƒ
åƒ‘
åƒ•
åƒ–
åƒš
åƒ¥
åƒ§
åƒ­
åƒ®
åƒ±
åƒµ
åƒ¹
åƒ»
å„€
å„‚
å„„
å„†
å„‰
å„‹
å„’
å„•
å„˜
å„Ÿ
å„¡
å„ª
å„²
å„·
å„¼
å„¿
å…€
å…
å…ƒ
å…„
å……
å…†
å…‡
å…ˆ
å…‰
å…‹
å…Œ
å…
å…
å…‘
å…’
å…”
å…–
å…š
å…œ
å…¢
å…¥
å…§
å…¨
å…©
å…«
å…¬
å…­
å…®
å…°
å…±
å…²
å…³
å…´
å…µ
å…¶
å…·
å…¸
å…¹
å…»
å…¼
å…½
å†€
å†…
å††
å†‡
å†ˆ
å†‰
å†Š
å†Œ
å†
å†
å†’
å†•
å†—
å†™
å†›
å†œ
å† 
å†¢
å†¤
å†¥
å†¨
å†ª
å†¬
å†¯
å†°
å†²
å†³
å†µ
å†¶
å†·
å†»
å†¼
å†½
å†¾
å‡€
å‡„
å‡†
å‡‡
å‡ˆ
å‡‰
å‡‹
å‡Œ
å‡
å‡
å‡‘
å‡›
å‡œ
å‡
å‡ 
å‡¡
å‡¤
å‡¦
å‡ª
å‡­
å‡¯
å‡°
å‡±
å‡³
å‡¶
å‡¸
å‡¹
å‡º
å‡»
å‡½
å‡¿
åˆ€
åˆ
åˆƒ
åˆ†
åˆ‡
åˆˆ
åˆŠ
åˆ
åˆŽ
åˆ‘
åˆ’
åˆ—
åˆ˜
åˆ™
åˆš
åˆ›
åˆ
åˆ 
åˆ¤
åˆ¥
åˆ¨
åˆ©
åˆª
åˆ«
åˆ®
åˆ°
åˆ¶
åˆ·
åˆ¸
åˆ¹
åˆº
åˆ»
åˆ½
å‰
å‰‚
å‰ƒ
å‰‡
å‰‰
å‰Š
å‰‹
å‰Œ
å‰
å‰Ž
å‰
å‰‘
å‰”
å‰–
å‰›
å‰œ
å‰
å‰£
å‰¤
å‰¥
å‰§
å‰©
å‰ª
å‰¯
å‰²
å‰µ
å‰·
å‰½
å‰¿
åŠƒ
åŠ‡
åŠˆ
åŠ‰
åŠŠ
åŠ
åŠ
åŠ‘
åŠ›
åŠ
åŠž
åŠŸ
åŠ 
åŠ¡
åŠ£
åŠ¨
åŠ©
åŠª
åŠ«
åŠ­
åŠ±
åŠ²
åŠ³
åŠ´
åŠµ
åŠ¹
åŠ¾
åŠ¿
å‹
å‹ƒ
å‹‡
å‹‰
å‹‹
å‹
å‹’
å‹•
å‹–
å‹˜
å‹™
å‹›
å‹
å‹ž
å‹Ÿ
å‹¢
å‹¤
å‹§
å‹³
å‹µ
å‹¸
å‹º
å‹»
å‹¾
å‹¿
åŒ€
åŒ…
åŒ†
åŒˆ
åŒ
åŒ
åŒ•
åŒ–
åŒ—
åŒ™
åŒ
åŒ 
åŒ¡
åŒ£
åŒª
åŒ®
åŒ¯
åŒ±
åŒ¹
åŒº
åŒ»
åŒ¾
åŒ¿
å€
å
åƒ
å…
å‡
åˆ
å‰
åŠ
å
åŽ
å
å‘
å’
å“
å”
å•
å–
å—
å˜
åš
åœ
åž
åŸ
å 
å¡
å¢
å¤
å¦
å§
å«
å®
å¯
å°
å±
å³
å´
åµ
å·
å¸
å»
å¿
åŽ‚
åŽ„
åŽ…
åŽ†
åŽ‰
åŽ‹
åŽŒ
åŽ•
åŽ˜
åŽš
åŽ
åŽŸ
åŽ¢
åŽ¥
åŽ¦
åŽ¨
åŽ©
åŽ­
åŽ®
åŽ²
åŽ³
åŽ»
åŽ¿
å
å‚
åƒ
åˆ
å‰
åŠ
å‹
åŒ
å
åŽ
å‘
å”
å–
å—
å˜
å™
å›
åŸ
å 
å¡
å¢
å£
å¤
å¥
å¦
å¨
å©
åª
å«
å¬
å­
å®
å¯
å°
å±
å²
å³
åµ
å¶
å·
å¸
å¹
å»
å¼
å½
å
åƒ
å„
å†
åˆ
å‰
åŠ
å‹
åŒ
å
åŽ
å
å
å‘
å’
å“
å•
å–
å—
å›
å
åž
åŸ
å 
å¡
å¦
å§
å¨
å©
å«
å¬
å­
å®
å¯
å±
å³
å´
åµ
å¶
å¸
å¹
å»
å¼
å½
å¾
å‘€
å‘‚
å‘ƒ
å‘†
å‘ˆ
å‘Š
å‘‹
å‘Ž
å‘
å‘“
å‘•
å‘—
å‘˜
å‘›
å‘œ
å‘¢
å‘¤
å‘¦
å‘¨
å‘±
å‘²
å‘³
å‘µ
å‘·
å‘¸
å‘»
å‘¼
å‘½
å’€
å’
å’‚
å’„
å’†
å’‹
å’Œ
å’Ž
å’
å’
å’’
å’”
å’•
å’–
å’—
å’˜
å’™
å’š
å’›
å’£
å’¤
å’¦
å’§
å’¨
å’©
å’ª
å’«
å’¬
å’­
å’¯
å’±
å’²
å’³
å’¸
å’»
å’½
å’¿
å“€
å“
å“‚
å“„
å“†
å“‡
å“ˆ
å“‰
å“‹
å“Œ
å“
å“Ž
å“
å“
å“‘
å“’
å“”
å“—
å“Ÿ
å“¡
å“¥
å“¦
å“§
å“¨
å“©
å“ª
å“­
å“®
å“²
å“º
å“¼
å“½
å”
å”„
å”†
å”‡
å”‰
å”
å”
å”‘
å””
å” 
å”¤
å”§
å”¬
å”®
å”¯
å”°
å”±
å”³
å”·
å”¸
å”¾
å•ƒ
å•„
å•†
å•‰
å•Š
å•
å•“
å••
å•–
å•œ
å•ž
å•Ÿ
å•¡
å•¤
å•¥
å•¦
å•§
å•ª
å•«
å•¬
å•®
å•°
å•±
å•²
å•µ
å•¶
å•·
å•¸
å•»
å•¼
å•¾
å–€
å–‚
å–ƒ
å–„
å–†
å–‡
å–‰
å–Š
å–‹
å–Ž
å–
å–”
å–˜
å–™
å–š
å–œ
å–
å–Ÿ
å–§
å–ª
å–«
å–¬
å–®
å–°
å–±
å–²
å–³
å–µ
å–¶
å–·
å–¹
å–º
å–»
å–½
å—…
å—†
å—‡
å—Ž
å—‘
å—’
å—“
å—”
å—–
å—š
å—œ
å—
å—Ÿ
å—¡
å—£
å—¤
å—¦
å—¨
å—ª
å—¬
å—¯
å—°
å—²
å—³
å—¶
å—·
å—½
å˜€
å˜…
å˜†
å˜ˆ
å˜‰
å˜Œ
å˜
å˜Ž
å˜”
å˜–
å˜—
å˜˜
å˜š
å˜›
å˜œ
å˜ž
å˜Ÿ
å˜¢
å˜£
å˜¤
å˜§
å˜©
å˜­
å˜®
å˜¯
å˜°
å˜±
å˜²
å˜´
å˜¶
å˜¸
å˜¹
å˜»
å˜¿
å™
å™Œ
å™Ž
å™“
å™”
å™—
å™™
å™œ
å™ 
å™¢
å™¤
å™¨
å™©
å™ª
å™¬
å™±
å™´
å™¶
å™¸
å™¹
å™»
å™¼
åš€
åš‡
åšŽ
åš
åš
åš“
åš•
åšŸ
åš£
åš¥
åš¨
åš®
åš´
åš·
åš¼
å›‚
å›‰
å›Š
å›
å›‘
å›”
å›—
å›š
å››
å›
å›ž
å›Ÿ
å› 
å›¡
å›¢
å›£
å›¤
å›§
å›ª
å›«
å›­
å›°
å›±
å›²
å›³
å›´
å›¹
å›º
å›½
å›¾
å›¿
åœƒ
åœ„
åœ†
åœˆ
åœ‹
åœ
åœ
åœ’
åœ“
åœ–
åœ˜
åœœ
åœŸ
åœ£
åœ§
åœ¨
åœ©
åœ­
åœ°
åœ³
åœº
åœ»
åœ¾
å€
å‚
å‡
åŠ
å
åŽ
å
å
å‘
å—
åš
å›
å
åž
åŸ
å 
å¡
å¤
å¦
å¨
åª
å¯
å³
åµ
å·
åž‚
åžƒ
åž„
åž‹
åž’
åžš
åž›
åž 
åž¢
åž£
åž¦
åž©
åž«
åž­
åž®
åžµ
åŸ‚
åŸƒ
åŸ‹
åŸŽ
åŸ”
åŸ•
åŸ—
åŸŸ
åŸ 
åŸ¤
åŸµ
åŸ·
åŸ¸
åŸ¹
åŸº
åŸ¼
å €
å ‚
å ƒ
å …
å †
å ‡
å ‘
å •
å ™
å ¡
å ¤
å ª
å ¯
å °
å ±
å ´
å µ
å º
å ¿
å¡Š
å¡Œ
å¡‘
å¡”
å¡—
å¡˜
å¡š
å¡ž
å¡¢
å¡©
å¡«
å¡¬
å¡­
å¡µ
å¡¾
å¢€
å¢ƒ
å¢…
å¢‰
å¢Š
å¢’
å¢“
å¢—
å¢˜
å¢™
å¢œ
å¢ž
å¢Ÿ
å¢¨
å¢©
å¢®
å¢³
å¢»
å¢¾
å£
å£…
å£†
å£‡
å£Š
å£‘
å£“
å£•
å£˜
å£ž
å£Ÿ
å£¢
å£¤
å£©
å£«
å£¬
å£®
å£¯
å£°
å£²
å£³
å£¶
å£¹
å£º
å£½
å¤„
å¤‡
å¤‰
å¤
å¤
å¤”
å¤•
å¤–
å¤™
å¤š
å¤œ
å¤Ÿ
å¤ 
å¤¢
å¤¥
å¤§
å¤©
å¤ª
å¤«
å¤­
å¤®
å¤¯
å¤±
å¤´
å¤·
å¤¸
å¤¹
å¤º
å¤¾
å¥‚
å¥„
å¥‡
å¥ˆ
å¥‰
å¥‹
å¥Ž
å¥
å¥
å¥‘
å¥”
å¥•
å¥–
å¥—
å¥˜
å¥š
å¥ 
å¥¢
å¥¥
å¥§
å¥ª
å¥¬
å¥®
å¥³
å¥´
å¥¶
å¥¸
å¥¹
å¥½
å¦‚
å¦ƒ
å¦„
å¦†
å¦‡
å¦ˆ
å¦Š
å¦
å¦’
å¦“
å¦–
å¦˜
å¦™
å¦
å¦ž
å¦£
å¦¤
å¦¥
å¦¨
å¦©
å¦ª
å¦®
å¦²
å¦³
å¦¹
å¦»
å¦¾
å§†
å§‰
å§Š
å§‹
å§
å§
å§‘
å§’
å§“
å§”
å§—
å§š
å§œ
å§
å§£
å§¥
å§¦
å§¨
å§ª
å§«
å§¬
å§¹
å§»
å§¿
å¨
å¨ƒ
å¨„
å¨…
å¨†
å¨‡
å¨‰
å¨‘
å¨“
å¨˜
å¨›
å¨œ
å¨Ÿ
å¨ 
å¨£
å¨¥
å¨©
å¨±
å¨²
å¨´
å¨¶
å¨¼
å©€
å©
å©†
å©‰
å©Š
å©•
å©š
å©¢
å©¦
å©§
å©ª
å©­
å©´
å©µ
å©¶
å©·
å©º
å©¿
åª’
åªš
åª›
åªž
åª§
åª²
åª³
åª½
åª¾
å«
å«‚
å«‰
å«Œ
å«‘
å«”
å«–
å«˜
å«š
å«¡
å«£
å«¦
å«©
å«²
å«µ
å«»
å¬…
å¬‰
å¬Œ
å¬—
å¬›
å¬¢
å¬¤
å¬ª
å¬°
å¬´
å¬·
å¬¸
å¬¿
å­€
å­ƒ
å­
å­‘
å­”
å­•
å­–
å­—
å­˜
å­™
å­š
å­›
å­œ
å­
å­Ÿ
å­¢
å­£
å­¤
å­¦
å­©
å­ª
å­«
å­¬
å­°
å­±
å­³
å­µ
å­¸
å­º
å­½
å­¿
å®
å®ƒ
å®…
å®‡
å®ˆ
å®‰
å®‹
å®Œ
å®
å®“
å®•
å®—
å®˜
å®™
å®š
å®›
å®œ
å®
å®ž
å®Ÿ
å® 
å®¡
å®¢
å®£
å®¤
å®¥
å®¦
å®ª
å®«
å®®
å®°
å®³
å®´
å®µ
å®¶
å®¸
å®¹
å®½
å®¾
å®¿
å¯‚
å¯„
å¯…
å¯†
å¯‡
å¯Œ
å¯
å¯’
å¯“
å¯›
å¯
å¯ž
å¯Ÿ
å¯¡
å¯¢
å¯¥
å¯¦
å¯§
å¯¨
å¯©
å¯«
å¯¬
å¯®
å¯°
å¯µ
å¯¶
å¯¸
å¯¹
å¯º
å¯»
å¯¼
å¯¾
å¯¿
å°
å°‚
å°„
å°†
å°‡
å°ˆ
å°‰
å°Š
å°‹
å°
å°Ž
å°
å°‘
å°”
å°•
å°–
å°˜
å°š
å°
å°¤
å°§
å°¬
å°±
å°´
å°·
å°¸
å°¹
å°º
å°»
å°¼
å°½
å°¾
å°¿
å±€
å±
å±‚
å±„
å±…
å±†
å±ˆ
å±‰
å±Š
å±‹
å±Œ
å±
å±Ž
å±
å±
å±‘
å±•
å±œ
å±ž
å± 
å±¡
å±¢
å±¤
å±¥
å±¬
å±¯
å±±
å±¹
å±¿
å²€
å²
å²‚
å²Œ
å²
å²‘
å²”
å²–
å²—
å²˜
å²™
å²š
å²›
å²¡
å²©
å²«
å²¬
å²­
å²±
å²³
å²·
å²¸
å³‡
å³‹
å³’
å³™
å³¡
å³¤
å³¥
å³¦
å³¨
å³ª
å³­
å³¯
å³°
å³´
å³¶
å³»
å³½
å´
å´‚
å´†
å´‡
å´Ž
å´‘
å´”
å´–
å´—
å´™
å´›
å´§
å´©
å´­
å´´
å´½
åµ‡
åµŠ
åµ‹
åµŒ
åµ
åµ˜
åµ©
åµ¬
åµ¯
å¶‚
å¶„
å¶‡
å¶‹
å¶™
å¶º
å¶¼
å¶½
å·…
å·
å·’
å·”
å·–
å·
å·ž
å·¡
å·¢
å·¥
å·¦
å·§
å·¨
å·©
å·«
å·®
å·±
å·²
å·³
å·´
å··
å·»
å·½
å·¾
å·¿
å¸
å¸‚
å¸ƒ
å¸…
å¸†
å¸ˆ
å¸Œ
å¸
å¸‘
å¸•
å¸–
å¸˜
å¸š
å¸›
å¸œ
å¸
å¸¥
å¸¦
å¸§
å¸«
å¸­
å¸®
å¸¯
å¸°
å¸³
å¸¶
å¸·
å¸¸
å¸¼
å¸½
å¹€
å¹‚
å¹„
å¹…
å¹Œ
å¹”
å¹•
å¹Ÿ
å¹¡
å¹¢
å¹£
å¹«
å¹²
å¹³
å¹´
å¹¶
å¹¸
å¹¹
å¹º
å¹»
å¹¼
å¹½
å¹¾
å¹¿
åº
åºƒ
åº„
åº†
åº‡
åºŠ
åº
åº
åº“
åº”
åº•
åº–
åº—
åº™
åºš
åºœ
åºž
åºŸ
åº 
åº¦
åº§
åº«
åº­
åºµ
åº¶
åº·
åº¸
åº¹
åº¾
å»
å»‚
å»ƒ
å»ˆ
å»‰
å»Š
å»“
å»–
å»š
å»
å»Ÿ
å» 
å»¢
å»£
å»¬
å»³
å»¶
å»·
å»º
å»¿
å¼€
å¼
å¼‚
å¼ƒ
å¼„
å¼ˆ
å¼Š
å¼‹
å¼
å¼‘
å¼’
å¼“
å¼”
å¼•
å¼—
å¼˜
å¼›
å¼Ÿ
å¼ 
å¼¥
å¼¦
å¼§
å¼©
å¼­
å¼¯
å¼±
å¼µ
å¼·
å¼¹
å¼º
å¼¼
å¼¾
å½…
å½†
å½ˆ
å½Œ
å½Ž
å½’
å½“
å½•
å½—
å½™
å½
å½¢
å½¤
å½¥
å½¦
å½§
å½©
å½ª
å½«
å½¬
å½­
å½°
å½±
å½·
å½¹
å½»
å½¼
å½¿
å¾€
å¾
å¾„
å¾…
å¾‡
å¾ˆ
å¾‰
å¾Š
å¾‹
å¾Œ
å¾
å¾‘
å¾’
å¾“
å¾•
å¾—
å¾˜
å¾™
å¾œ
å¾ž
å¾ 
å¾¡
å¾¨
å¾©
å¾ª
å¾¬
å¾®
å¾³
å¾´
å¾µ
å¾·
å¾¹
å¾¼
å¾½
å¿ƒ
å¿…
å¿†
å¿Œ
å¿
å¿
å¿
å¿‘
å¿’
å¿–
å¿—
å¿˜
å¿™
å¿œ
å¿ 
å¿¡
å¿¤
å¿§
å¿ª
å¿«
å¿±
å¿µ
å¿»
å¿½
å¿¿
æ€€
æ€
æ€‚
æ€…
æ€†
æ€Ž
æ€
æ€’
æ€”
æ€•
æ€–
æ€™
æ€œ
æ€
æ€ 
æ€¡
æ€¥
æ€¦
æ€§
æ€¨
æ€ª
æ€¯
æ€µ
æ€»
æ€¼
æ
æƒ
æ†
æ‹
æ
æ
æ’
æ•
æ™
æš
æ¢
æ£
æ¤
æ¥
æ¨
æ©
æª
æ«
æ¬
æ­
æ¯
æ°
æ³
æµ
æ¶
æ¸
æº
æ»
æ¼
æ¿
æ‚„
æ‚…
æ‚‰
æ‚Œ
æ‚
æ‚”
æ‚–
æ‚š
æ‚Ÿ
æ‚ 
æ‚£
æ‚¦
æ‚¨
æ‚©
æ‚ª
æ‚¬
æ‚¯
æ‚±
æ‚²
æ‚´
æ‚µ
æ‚¶
æ‚¸
æ‚»
æ‚¼
æ‚½
æƒ…
æƒ†
æƒ‡
æƒŠ
æƒ‹
æƒ‘
æƒ•
æƒ˜
æƒš
æƒœ
æƒŸ
æƒ 
æƒ¡
æƒ¦
æƒ§
æƒ¨
æƒ©
æƒ«
æƒ¬
æƒ­
æƒ®
æƒ¯
æƒ°
æƒ±
æƒ³
æƒ´
æƒ¶
æƒ¹
æƒº
æ„
æ„†
æ„ˆ
æ„‰
æ„
æ„
æ„•
æ„š
æ„›
æ„œ
æ„Ÿ
æ„£
æ„¤
æ„§
æ„«
æ„·
æ„¿
æ…„
æ…ˆ
æ…‹
æ…Œ
æ…Ž
æ…‘
æ…•
æ…˜
æ…š
æ…Ÿ
æ…¢
æ…£
æ…§
æ…¨
æ…«
æ…®
æ…°
æ…³
æ…µ
æ…¶
æ…·
æ…¾
æ†‚
æ†Š
æ†‹
æ†Ž
æ†
æ†‘
æ†”
æ†š
æ†¤
æ†§
æ†¨
æ†©
æ†«
æ†¬
æ†²
æ†¶
æ†¾
æ‡‚
æ‡‡
æ‡ˆ
æ‡‰
æ‡Š
æ‡‹
æ‡‘
æ‡’
æ‡¦
æ‡²
æ‡µ
æ‡¶
æ‡·
æ‡¸
æ‡º
æ‡¼
æ‡¾
æ‡¿
æˆ€
æˆˆ
æˆŠ
æˆŒ
æˆ
æˆŽ
æˆ
æˆ
æˆ‘
æˆ’
æˆ•
æˆ–
æˆ˜
æˆš
æˆ›
æˆŸ
æˆ¡
æˆ¦
æˆª
æˆ¬
æˆ®
æˆ°
æˆ²
æˆ³
æˆ´
æˆ¶
æˆ·
æˆ¸
æˆ»
æˆ¾
æˆ¿
æ‰€
æ‰
æ‰‡
æ‰ˆ
æ‰‰
æ‰‹
æ‰
æ‰Ž
æ‰‘
æ‰’
æ‰“
æ‰”
æ‰•
æ‰˜
æ‰›
æ‰£
æ‰¦
æ‰§
æ‰©
æ‰ª
æ‰«
æ‰¬
æ‰­
æ‰®
æ‰¯
æ‰°
æ‰±
æ‰³
æ‰¶
æ‰¹
æ‰¼
æ‰¾
æ‰¿
æŠ€
æŠ„
æŠ‰
æŠŠ
æŠ‘
æŠ’
æŠ“
æŠ•
æŠ–
æŠ—
æŠ˜
æŠš
æŠ›
æŠœ
æŠž
æŠŸ
æŠ 
æŠ¡
æŠ¢
æŠ¤
æŠ¥
æŠ¨
æŠ«
æŠ¬
æŠ±
æŠµ
æŠ¹
æŠ¼
æŠ½
æŠ¿
æ‹‚
æ‹„
æ‹…
æ‹†
æ‹‡
æ‹ˆ
æ‹‰
æ‹‹
æ‹Œ
æ‹
æ‹Ž
æ‹
æ‹’
æ‹“
æ‹”
æ‹–
æ‹—
æ‹˜
æ‹™
æ‹š
æ‹›
æ‹œ
æ‹Ÿ
æ‹¡
æ‹¢
æ‹£
æ‹¥
æ‹¦
æ‹§
æ‹¨
æ‹©
æ‹¬
æ‹­
æ‹®
æ‹¯
æ‹±
æ‹³
æ‹´
æ‹·
æ‹¼
æ‹½
æ‹¾
æ‹¿
æŒ
æŒ‚
æŒ‡
æŒˆ
æŒ‰
æŒŽ
æŒ‘
æŒ–
æŒ™
æŒš
æŒ›
æŒ
æŒž
æŒŸ
æŒ 
æŒ¡
æŒ£
æŒ¤
æŒ¥
æŒ¨
æŒª
æŒ«
æŒ¯
æŒ²
æŒ¹
æŒº
æŒ½
æŒ¾
æ‚
æ…
æ†
æ‰
æ‹
æŒ
æ
æŽ
æ
æ
æ•
æž
æŸ
æ¡
æ¢
æ£
æ§
æ¨
æ©
æ®
æ±
æ²
æ¶
æ·
æº
æ»
æŽ€
æŽ‚
æŽƒ
æŽ‡
æŽˆ
æŽ‰
æŽŒ
æŽ
æŽ
æŽ’
æŽ–
æŽ˜
æŽ™
æŽ›
æŽ 
æŽ¡
æŽ¢
æŽ£
æŽ¥
æŽ§
æŽ¨
æŽ©
æŽª
æŽ¬
æŽ°
æŽ²
æŽ³
æŽ´
æŽ·
æŽ¸
æŽº
æ€
æƒ
æ„
æ†
æ‰
æ
æ
æ
æ’
æ–
æš
æ›
æ¡
æ£
æ©
æª
æ­
æ®
æ´
æ¶
æ¸
æ¹
æ½
æ€
æ
æ‚
æ…
æ
æ
æ
æ“
æ”
æ–
æ—
æœ
æž
æ¡
æª
æ¬
æ­
æµ
æ¶
æº
æ½
æ‘€
æ‘
æ‘„
æ‘†
æ‘‡
æ‘ˆ
æ‘Š
æ‘’
æ‘”
æ‘˜
æ‘ž
æ‘Ÿ
æ‘§
æ‘©
æ‘¯
æ‘³
æ‘¸
æ‘¹
æ‘º
æ‘»
æ’‚
æ’ƒ
æ’…
æ’‡
æ’ˆ
æ’
æ’‘
æ’’
æ’“
æ’•
æ’š
æ’ž
æ’¤
æ’¥
æ’©
æ’«
æ’¬
æ’­
æ’®
æ’°
æ’²
æ’µ
æ’·
æ’¸
æ’»
æ’¼
æ’¿
æ“€
æ“
æ“‚
æ“„
æ“…
æ“‡
æ“Š
æ“‹
æ“
æ“Ž
æ“’
æ“”
æ“˜
æ“š
æ“ž
æ“ 
æ“¡
æ“¢
æ“¦
æ“¬
æ“°
æ“±
æ“²
æ“´
æ“·
æ“º
æ“¼
æ“¾
æ”€
æ”
æ”’
æ””
æ”˜
æ”™
æ”œ
æ”
æ”ž
æ”¢
æ”£
æ”¤
æ”¥
æ”ª
æ”«
æ”¬
æ”¯
æ”¶
æ”¸
æ”¹
æ”»
æ”¾
æ”¿
æ•…
æ•ˆ
æ•Œ
æ•
æ•Ž
æ•
æ•‘
æ••
æ•–
æ•—
æ•˜
æ•™
æ•›
æ•
æ•ž
æ•¢
æ•£
æ•¦
æ•¬
æ•°
æ•²
æ•´
æ•µ
æ•·
æ•¸
æ–‚
æ–ƒ
æ–‡
æ–‹
æ–Œ
æ–Ž
æ–
æ–‘
æ–“
æ–—
æ–™
æ–›
æ–œ
æ–Ÿ
æ–¡
æ–¤
æ–¥
æ–§
æ–©
æ–«
æ–¬
æ–­
æ–¯
æ–°
æ–·
æ–¹
æ–¼
æ–½
æ—
æ—ƒ
æ—…
æ—‹
æ—Œ
æ—Ž
æ—
æ—–
æ——
æ— 
æ—¢
æ—¥
æ—¦
æ—§
æ—¨
æ—©
æ—¬
æ—­
æ—®
æ—±
æ—¶
æ—·
æ—º
æ—»
æ˜€
æ˜‚
æ˜†
æ˜‡
æ˜‰
æ˜Š
æ˜Œ
æ˜Ž
æ˜
æ˜“
æ˜”
æ˜•
æ˜™
æ˜Ÿ
æ˜ 
æ˜¥
æ˜§
æ˜¨
æ˜­
æ˜¯
æ˜±
æ˜´
æ˜µ
æ˜¶
æ˜¼
æ˜¾
æ™
æ™‚
æ™ƒ
æ™‰
æ™‹
æ™Œ
æ™
æ™’
æ™“
æ™”
æ™•
æ™–
æ™—
æ™š
æ™
æ™ž
æ™Ÿ
æ™¤
æ™¦
æ™¨
æ™©
æ™®
æ™¯
æ™°
æ™´
æ™¶
æ™·
æ™º
æ™¾
æš‚
æš„
æš‡
æšˆ
æš‰
æšŒ
æš
æš‘
æš–
æš—
æš
æš¢
æš§
æš¨
æš«
æš®
æš±
æš´
æš¸
æš¹
æ›„
æ›†
æ›‡
æ›‰
æ›–
æ›™
æ›œ
æ›
æ› 
æ›¦
æ›¬
æ›°
æ›²
æ›³
æ›´
æ›¸
æ›¹
æ›¼
æ›¾
æ›¿
æœ€
æœƒ
æœˆ
æœ‰
æœ‹
æœ
æœ
æœ”
æœ•
æœ—
æœ›
æœ
æœŸ
æœ¦
æœ§
æœ¨
æœª
æœ«
æœ¬
æœ­
æœ®
æœ¯
æœ±
æœ´
æœµ
æœº
æœ½
æ€
æ‚
æƒ
æ†
æˆ
æ‰
æŽ
æ
æ
æ‘
æ“
æ–
æœ
æž
æŸ
æ 
æ¡
æ¥
æ¨
æ­
æ¯
æ°
æ±
æ³
æµ
æ·
æ¼
æ¾
æ¿
æž
æž„
æž‡
æž‰
æž‹
æž
æž•
æž—
æžš
æžœ
æž
æž¢
æž£
æžª
æž«
æž­
æž¯
æž°
æž±
æž³
æž¶
æž·
æž¸
æŸ„
æŸ
æŸ
æŸ‘
æŸ’
æŸ“
æŸ”
æŸ˜
æŸš
æŸœ
æŸž
æŸ 
æŸ¢
æŸ¥
æŸ©
æŸ¬
æŸ¯
æŸ±
æŸ³
æŸ´
æŸµ
æŸ»
æŸ¿
æ €
æ ƒ
æ „
æ …
æ ‡
æ ˆ
æ ‰
æ ‹
æ Ž
æ 
æ ‘
æ “
æ –
æ —
æ ¡
æ ©
æ ª
æ ·
æ ¸
æ ¹
æ ¼
æ ½
æ ¾
æ¡€
æ¡
æ¡‚
æ¡ƒ
æ¡…
æ¡†
æ¡ˆ
æ¡‰
æ¡Œ
æ¡Ž
æ¡
æ¡‘
æ¡“
æ¡”
æ¡œ
æ¡ 
æ¡¡
æ¡¢
æ¡£
æ¡¥
æ¡¦
æ¡§
æ¡¨
æ¡©
æ¡¶
æ¡¿
æ¢
æ¢…
æ¢†
æ¢
æ¢“
æ¢—
æ¢
æ¢Ÿ
æ¢¢
æ¢¦
æ¢§
æ¢¨
æ¢­
æ¢¯
æ¢°
æ¢³
æ¢µ
æ¢¶
æ£€
æ£‚
æ£„
æ£‰
æ£‹
æ£
æ£’
æ£•
æ£—
æ£˜
æ£š
æ£Ÿ
æ£ 
æ££
æ£§
æ£®
æ£±
æ£²
æ£µ
æ£¹
æ£º
æ¤
æ¤…
æ¤‹
æ¤
æ¤Ž
æ¤’
æ¤œ
æ¤ª
æ¤­
æ¤°
æ¤¹
æ¤½
æ¤¿
æ¥‚
æ¥Š
æ¥“
æ¥”
æ¥š
æ¥
æ¥ž
æ¥ 
æ¥£
æ¥¨
æ¥«
æ¥­
æ¥®
æ¥µ
æ¥·
æ¥¸
æ¥¹
æ¥¼
æ¥½
æ¦‚
æ¦„
æ¦†
æ¦ˆ
æ¦‰
æ¦”
æ¦•
æ¦–
æ¦›
æ¦œ
æ¦¨
æ¦«
æ¦­
æ¦®
æ¦±
æ¦´
æ¦·
æ¦»
æ§
æ§ƒ
æ§‹
æ§Œ
æ§
æ§Ž
æ§
æ§“
æ§˜
æ§›
æ§Ÿ
æ§¤
æ§­
æ§²
æ§³
æ§»
æ§½
æ§¿
æ¨
æ¨‚
æ¨Š
æ¨‘
æ¨“
æ¨™
æ¨ž
æ¨Ÿ
æ¨¡
æ¨£
æ¨©
æ¨ª
æ¨«
æ¨¯
æ¨±
æ¨µ
æ¨¸
æ¨¹
æ¨º
æ¨½
æ¨¾
æ©„
æ©‡
æ©‹
æ©
æ©˜
æ©™
æ©Ÿ
æ©¡
æ©¢
æ©«
æ©±
æ©¹
æ©¼
æª€
æª„
æªŽ
æª
æª”
æª—
æªœ
æª¢
æª¬
æª¯
æª³
æª¸
æª»
æ«ƒ
æ«š
æ«›
æ«¥
æ«¸
æ«»
æ¬„
æ¬Š
æ¬’
æ¬–
æ¬ 
æ¬¡
æ¬¢
æ¬£
æ¬§
æ¬²
æ¬¸
æ¬º
æ¬½
æ¬¾
æ­†
æ­‡
æ­‰
æ­Œ
æ­Ž
æ­
æ­“
æ­™
æ­›
æ­¡
æ­¢
æ­£
æ­¤
æ­¥
æ­¦
æ­§
æ­©
æ­ª
æ­¯
æ­²
æ­³
æ­´
æ­·
æ­¸
æ­¹
æ­»
æ­¼
æ®
æ®ƒ
æ®†
æ®‡
æ®‰
æ®Š
æ®‹
æ®’
æ®“
æ®–
æ®˜
æ®ž
æ®¡
æ®¤
æ®­
æ®¯
æ®²
æ®´
æ®µ
æ®·
æ®º
æ®¼
æ®¿
æ¯€
æ¯
æ¯‚
æ¯…
æ¯†
æ¯‹
æ¯
æ¯Ž
æ¯
æ¯’
æ¯“
æ¯”
æ¯•
æ¯—
æ¯˜
æ¯™
æ¯›
æ¯¡
æ¯«
æ¯¯
æ¯½
æ°ˆ
æ°
æ°
æ°‘
æ°“
æ°”
æ°–
æ°—
æ°™
æ°›
æ°Ÿ
æ°¡
æ°¢
æ°£
æ°¤
æ°¦
æ°§
æ°¨
æ°ª
æ°«
æ°®
æ°¯
æ°°
æ°²
æ°´
æ°·
æ°¸
æ°¹
æ°¾
æ±€
æ±
æ±‚
æ±†
æ±‡
æ±‰
æ±Ž
æ±
æ±•
æ±—
æ±™
æ±›
æ±
æ±ž
æ±Ÿ
æ± 
æ±¡
æ±¤
æ±¨
æ±©
æ±ª
æ±°
æ±²
æ±´
æ±¶
æ±¹
æ±º
æ±½
æ±¾
æ²
æ²‚
æ²ƒ
æ²…
æ²ˆ
æ²‰
æ²Œ
æ²
æ²
æ²’
æ²“
æ²–
æ²™
æ²›
æ²Ÿ
æ²¡
æ²¢
æ²£
æ²¥
æ²¦
æ²§
æ²ª
æ²«
æ²­
æ²®
æ²±
æ²³
æ²¸
æ²¹
æ²»
æ²¼
æ²½
æ²¾
æ²¿
æ³
æ³„
æ³‰
æ³Š
æ³Œ
æ³“
æ³•
æ³—
æ³›
æ³ž
æ³ 
æ³¡
æ³¢
æ³£
æ³¥
æ³¨
æ³ª
æ³«
æ³®
æ³¯
æ³°
æ³±
æ³³
æ³µ
æ³·
æ³¸
æ³»
æ³¼
æ³½
æ³¾
æ´
æ´„
æ´‹
æ´’
æ´—
æ´™
æ´›
æ´ž
æ´¥
æ´©
æ´ª
æ´®
æ´±
æ´²
æ´µ
æ´¶
æ´¸
æ´¹
æ´»
æ´¼
æ´½
æ´¾
æµ
æµƒ
æµ„
æµ…
æµ†
æµ‡
æµŠ
æµ‹
æµŽ
æµ
æµ‘
æµ’
æµ“
æµ”
æµ™
æµš
æµœ
æµ£
æµ¦
æµ©
æµª
æµ¬
æµ®
æµ¯
æµ´
æµ·
æµ¸
æ¶‚
æ¶…
æ¶‡
æ¶ˆ
æ¶‰
æ¶Œ
æ¶Ž
æ¶“
æ¶”
æ¶•
æ¶™
æ¶›
æ¶
æ¶ž
æ¶Ÿ
æ¶ 
æ¶¡
æ¶£
æ¶¤
æ¶¦
æ¶§
æ¶¨
æ¶©
æ¶ª
æ¶®
æ¶¯
æ¶²
æ¶µ
æ¶¸
æ¶¼
æ¶¿
æ·€
æ·„
æ·…
æ·†
æ·‡
æ·‹
æ·Œ
æ·‘
æ·’
æ·–
æ·˜
æ·™
æ·š
æ·ž
æ·¡
æ·¤
æ·¦
æ·¨
æ·©
æ·ª
æ·«
æ·¬
æ·®
æ·±
æ·³
æ·µ
æ··
æ·¹
æ·º
æ·»
æ·¼
æ¸…
æ¸ˆ
æ¸‰
æ¸Š
æ¸‹
æ¸
æ¸Ž
æ¸
æ¸”
æ¸—
æ¸™
æ¸š
æ¸›
æ¸
æ¸ 
æ¸¡
æ¸£
æ¸¤
æ¸¥
æ¸¦
æ¸©
æ¸¬
æ¸­
æ¸¯
æ¸²
æ¸´
æ¸¸
æ¸º
æ¸¾
æ¹ƒ
æ¹„
æ¹Š
æ¹
æ¹–
æ¹˜
æ¹›
æ¹Ÿ
æ¹§
æ¹«
æ¹®
æ¹¯
æ¹³
æ¹¾
æ¹¿
æº€
æºƒ
æº…
æº‰
æº
æº
æº–
æºœ
æº
æºŸ
æº¢
æº¥
æº§
æºª
æº«
æº¯
æº±
æº´
æº¶
æºº
æº¼
æ»
æ»‚
æ»„
æ»…
æ»‡
æ»‹
æ»Œ
æ»‘
æ»“
æ»”
æ»•
æ»™
æ»š
æ»
æ»ž
æ»Ÿ
æ»¡
æ»¢
æ»¤
æ»¥
æ»¦
æ»¨
æ»©
æ»¬
æ»¯
æ»²
æ»´
æ»·
æ»¸
æ»¾
æ»¿
æ¼
æ¼‚
æ¼†
æ¼‰
æ¼
æ¼“
æ¼”
æ¼•
æ¼ 
æ¼¢
æ¼£
æ¼©
æ¼ª
æ¼«
æ¼¬
æ¼¯
æ¼±
æ¼²
æ¼³
æ¼¸
æ¼¾
æ¼¿
æ½†
æ½‡
æ½‹
æ½
æ½‘
æ½”
æ½˜
æ½›
æ½œ
æ½ž
æ½Ÿ
æ½¢
æ½¤
æ½¦
æ½§
æ½­
æ½®
æ½°
æ½´
æ½¸
æ½º
æ½¼
æ¾€
æ¾„
æ¾†
æ¾ˆ
æ¾
æ¾Ž
æ¾—
æ¾œ
æ¾¡
æ¾¤
æ¾§
æ¾±
æ¾³
æ¾¹
æ¿€
æ¿
æ¿‚
æ¿ƒ
æ¿‘
æ¿’
æ¿•
æ¿˜
æ¿›
æ¿Ÿ
æ¿ 
æ¿¡
æ¿¤
æ¿«
æ¿¬
æ¿®
æ¿¯
æ¿±
æ¿º
æ¿¾
ç€…
ç€†
ç€‰
ç€‹
ç€
ç€‘
ç€•
ç€˜
ç€š
ç€›
ç€
ç€ž
ç€Ÿ
ç€§
ç€¨
ç€¬
ç€°
ç€¾
çŒ
ç
ç‘
ç˜
ç
çž
ç£
ç«
ç¬
ç­
ç¯
ç°
çµ
ç¶
ç¸
ç¼
ç½
ç¾
ç¿
ç‚€
ç‚
ç‚…
ç‚‰
ç‚Š
ç‚Ž
ç‚’
ç‚”
ç‚•
ç‚–
ç‚™
ç‚œ
ç‚«
ç‚¬
ç‚­
ç‚®
ç‚¯
ç‚³
ç‚·
ç‚¸
ç‚¹
ç‚º
ç‚¼
ç‚½
çƒ
çƒ‚
çƒƒ
çƒˆ
çƒŠ
çƒ
çƒ˜
çƒ™
çƒ›
çƒŸ
çƒ¤
çƒ¦
çƒ§
çƒ¨
çƒ©
çƒ«
çƒ¬
çƒ­
çƒ¯
çƒ·
çƒ¹
çƒ½
ç„‰
ç„Š
ç„•
ç„–
ç„—
ç„˜
ç„™
ç„š
ç„œ
ç„¡
ç„¦
ç„¯
ç„°
ç„±
ç„¶
ç„¼
ç……
ç…‰
ç…Š
ç…Œ
ç…Ž
ç…’
ç…–
ç…™
ç…œ
ç…ž
ç…¤
ç…¥
ç…¦
ç…§
ç…¨
ç…©
ç…®
ç…²
ç…¸
ç…½
ç†„
ç†Š
ç†
ç†’
ç†”
ç†™
ç†Ÿ
ç† 
ç†¨
ç†¬
ç†±
ç†µ
ç†¹
ç†¾
ç‡
ç‡ƒ
ç‡„
ç‡ˆ
ç‡‰
ç‡Š
ç‡Ž
ç‡’
ç‡”
ç‡•
ç‡™
ç‡œ
ç‡Ÿ
ç‡¥
ç‡¦
ç‡§
ç‡­
ç‡®
ç‡´
ç‡»
ç‡¼
ç‡¿
çˆ†
çˆ
çˆ
çˆ›
çˆª
çˆ¬
çˆ­
çˆ°
çˆ±
çˆ²
çˆµ
çˆ¶
çˆ·
çˆ¸
çˆ¹
çˆº
çˆ»
çˆ½
çˆ¾
ç‰†
ç‰‡
ç‰ˆ
ç‰Œ
ç‰
ç‰’
ç‰™
ç‰›
ç‰
ç‰Ÿ
ç‰ 
ç‰¡
ç‰¢
ç‰¦
ç‰§
ç‰©
ç‰¯
ç‰²
ç‰´
ç‰µ
ç‰¹
ç‰º
ç‰½
çŠ€
çŠ
çŠ„
çŠŠ
çŠ
çŠ’
çŠ¢
çŠ§
çŠ¬
çŠ¯
çŠ¶
çŠ·
çŠ¸
çŠ¹
ç‹€
ç‹‚
ç‹„
ç‹ˆ
ç‹Ž
ç‹
ç‹’
ç‹—
ç‹™
ç‹ž
ç‹ 
ç‹¡
ç‹©
ç‹¬
ç‹­
ç‹®
ç‹°
ç‹±
ç‹¸
ç‹¹
ç‹¼
ç‹½
çŒŽ
çŒ•
çŒ–
çŒ—
çŒ™
çŒ›
çŒœ
çŒ
çŒ¥
çŒ©
çŒª
çŒ«
çŒ¬
çŒ®
çŒ´
çŒ¶
çŒ·
çŒ¾
çŒ¿
ç„
ç…
çŽ
ç
ç’
ç—
ç 
ç£
ç¨
ç­
ç°
ç²
çµ
ç·
ç¸
çº
ç»
ç¼
ç¾
çŽ„
çŽ‡
çŽ‰
çŽ‹
çŽ‘
çŽ–
çŽ›
çŽŸ
çŽ 
çŽ¥
çŽ©
çŽ«
çŽ®
çŽ¯
çŽ°
çŽ²
çŽ³
çŽ·
çŽº
çŽ»
ç€
ç‚
ç…
çˆ
ç‰
çŠ
ç
ç
ç
ç‘
ç™
çž
ç 
ç£
ç¥
ç©
çª
ç­
ç®
ç²
çº
ç¾
çƒ
ç…
ç†
ç‡
ç‰
çŠ
ç
ç
ç
ç›
ç¢
ç¥
ç¦
ç¨
çª
ç¬
ç®
ç°
ç²
ç³
ç´
çµ
ç¶
çº
ç¼
ç‘€
ç‘
ç‘„
ç‘‹
ç‘•
ç‘—
ç‘™
ç‘š
ç‘›
ç‘œ
ç‘ž
ç‘Ÿ
ç‘ 
ç‘£
ç‘¤
ç‘©
ç‘ª
ç‘¯
ç‘°
ç‘¶
ç‘¾
ç’€
ç’
ç’ƒ
ç’‡
ç’‰
ç’‹
ç’Ž
ç’
ç’œ
ç’ž
ç’Ÿ
ç’§
ç’¨
ç’°
ç’½
ç’¿
ç“Š
ç“
ç“’
ç“œ
ç“¢
ç“£
ç“¤
ç“¦
ç“®
ç“¯
ç“´
ç“¶
ç“·
ç”„
ç”Œ
ç”•
ç”˜
ç”™
ç”š
ç”œ
ç”Ÿ
ç”¢
ç”£
ç”¥
ç”¦
ç”¨
ç”©
ç”«
ç”¬
ç”­
ç”¯
ç”°
ç”±
ç”²
ç”³
ç”µ
ç”·
ç”¸
ç”º
ç”»
ç”¾
ç•€
ç•…
ç•Œ
ç•
ç•‘
ç•”
ç•™
ç•œ
ç•
ç•¢
ç•¥
ç•¦
ç•ª
ç•«
ç•°
ç•²
ç•³
ç•´
ç•¶
ç•¸
ç•¹
ç•¿
ç–†
ç–‡
ç–Š
ç–
ç–‘
ç–”
ç––
ç–—
ç–™
ç–š
ç–
ç–Ÿ
ç–¡
ç–£
ç–¤
ç–¥
ç–«
ç–®
ç–¯
ç–±
ç–²
ç–³
ç–µ
ç–¸
ç–¹
ç–¼
ç–½
ç–¾
ç—‚
ç—…
ç—‡
ç—ˆ
ç—‰
ç—Š
ç—
ç—’
ç—”
ç—•
ç—˜
ç—™
ç—›
ç—ž
ç— 
ç—¢
ç—£
ç—¤
ç—§
ç—¨
ç—ª
ç—«
ç—°
ç—±
ç—´
ç—¹
ç—º
ç—¼
ç—¿
ç˜€
ç˜
ç˜‹
ç˜
ç˜“
ç˜˜
ç˜™
ç˜Ÿ
ç˜ 
ç˜¡
ç˜¢
ç˜¤
ç˜¦
ç˜§
ç˜©
ç˜ª
ç˜«
ç˜´
ç˜¸
ç˜¾
ç™‚
ç™‡
ç™Œ
ç™’
ç™–
ç™œ
ç™ž
ç™¡
ç™¢
ç™£
ç™¥
ç™«
ç™¬
ç™®
ç™±
ç™²
ç™¸
ç™º
ç™»
ç™¼
ç™½
ç™¾
çš‚
çš„
çš†
çš‡
çšˆ
çš‹
çšŽ
çš‘
çš“
çš–
çš™
çšš
çš®
çš°
çš±
çš´
çšº
çš¿
ç›‚
ç›ƒ
ç›…
ç›†
ç›ˆ
ç›Š
ç›Ž
ç›
ç›
ç›‘
ç›’
ç›”
ç›–
ç›—
ç›˜
ç››
ç›œ
ç›ž
ç›Ÿ
ç›¡
ç›£
ç›¤
ç›¥
ç›§
ç›ª
ç›®
ç›¯
ç›±
ç›²
ç›´
ç›¸
ç›¹
ç›¼
ç›¾
çœ
çœˆ
çœ‰
çœ‹
çœŒ
çœ™
çœž
çœŸ
çœ 
çœ¦
çœ¨
çœ©
çœ¯
çœ¶
çœ·
çœ¸
çœº
çœ¼
çœ¾
ç€
ç
ç‡
ç
ç
ç‘
ç›
çœ
çž
ç¡
ç¢
ç£
ç¥
ç¦
ç¨
çª
ç«
ç¬
ç¹
ç½
ç¾
ç¿
çž„
çž…
çž‡
çž‹
çžŒ
çžŽ
çž‘
çž’
çž“
çžž
çžŸ
çž 
çž¥
çž§
çž©
çžª
çž¬
çž­
çž°
çž³
çž»
çž¼
çž¿
çŸ‡
çŸ
çŸ—
çŸš
çŸ›
çŸœ
çŸ¢
çŸ£
çŸ¥
çŸ©
çŸ«
çŸ­
çŸ®
çŸ¯
çŸ³
çŸ¶
çŸ½
çŸ¾
çŸ¿
ç 
ç ‚
ç Œ
ç 
ç ’
ç ”
ç –
ç —
ç š
ç 
ç £
ç ¥
ç §
ç ­
ç °
ç ²
ç ´
ç ·
ç ¸
ç º
ç ¼
ç ¾
ç¡€
ç¡…
ç¡
ç¡’
ç¡•
ç¡
ç¡«
ç¡¬
ç¡®
ç¡¯
ç¡¼
ç¢
ç¢‡
ç¢‰
ç¢Œ
ç¢
ç¢Ž
ç¢‘
ç¢“
ç¢—
ç¢˜
ç¢š
ç¢›
ç¢Ÿ
ç¢£
ç¢§
ç¢©
ç¢°
ç¢±
ç¢³
ç¢´
ç¢º
ç¢¼
ç¢¾
ç£
ç£…
ç£Š
ç£‹
ç£
ç£•
ç£š
ç£¡
ç£¨
ç£¬
ç£¯
ç£²
ç£·
ç£º
ç¤
ç¤Ž
ç¤™
ç¤¡
ç¤¦
ç¤ª
ç¤«
ç¤´
ç¤º
ç¤¼
ç¤¾
ç¥€
ç¥
ç¥‚
ç¥‡
ç¥ˆ
ç¥‰
ç¥Ž
ç¥
ç¥•
ç¥–
ç¥—
ç¥š
ç¥›
ç¥œ
ç¥
ç¥ž
ç¥Ÿ
ç¥ 
ç¥¢
ç¥¥
ç¥¨
ç¥­
ç¥¯
ç¥·
ç¥¸
ç¥º
ç¥¿
ç¦€
ç¦
ç¦„
ç¦…
ç¦
ç¦Ž
ç¦
ç¦›
ç¦¦
ç¦§
ç¦ª
ç¦®
ç¦±
ç¦¹
ç¦º
ç¦»
ç¦½
ç¦¾
ç¦¿
ç§€
ç§
ç§ƒ
ç§†
ç§‰
ç§‹
ç§
ç§‘
ç§’
ç§˜
ç§Ÿ
ç§£
ç§¤
ç§¦
ç§§
ç§©
ç§­
ç§¯
ç§°
ç§¸
ç§»
ç§½
ç¨€
ç¨…
ç¨‹
ç¨
ç¨Ž
ç¨”
ç¨—
ç¨š
ç¨œ
ç¨ž
ç¨Ÿ
ç¨ 
ç¨£
ç¨®
ç¨±
ç¨²
ç¨³
ç¨·
ç¨¹
ç¨»
ç¨¼
ç¨½
ç¨¿
ç©€
ç©‚
ç©†
ç©Œ
ç©
ç©Ž
ç©—
ç©¢
ç©©
ç©«
ç©´
ç©¶
ç©·
ç©¹
ç©º
ç©¿
çª
çªƒ
çª„
çªˆ
çª
çª‘
çª’
çª“
çª•
çª–
çª—
çª˜
çªœ
çª
çªŸ
çª 
çª¥
çª¦
çª¨
çª©
çªª
çª®
çª¯
çªº
çª¿
ç«„
ç«…
ç«‡
ç«Š
ç«‹
ç«–
ç«™
ç«œ
ç«ž
ç«Ÿ
ç« 
ç«£
ç«¥
ç«­
ç«¯
ç«¶
ç«¹
ç«º
ç«½
ç«¿
ç¬ƒ
ç¬†
ç¬ˆ
ç¬‹
ç¬
ç¬‘
ç¬”
ç¬™
ç¬›
ç¬ž
ç¬ 
ç¬¦
ç¬¨
ç¬¬
ç¬¹
ç¬º
ç¬¼
ç­†
ç­‰
ç­Š
ç­‹
ç­
ç­
ç­
ç­‘
ç­’
ç­”
ç­–
ç­›
ç­
ç­ 
ç­±
ç­²
ç­µ
ç­·
ç­¹
ç­¾
ç®€
ç®‡
ç®‹
ç®
ç®
ç®
ç®”
ç®•
ç®—
ç®
ç®¡
ç®©
ç®«
ç®­
ç®±
ç®´
ç®¸
ç¯€
ç¯
ç¯„
ç¯†
ç¯‡
ç¯‰
ç¯‘
ç¯“
ç¯™
ç¯
ç¯ 
ç¯¡
ç¯¤
ç¯©
ç¯ª
ç¯®
ç¯±
ç¯·
ç°‡
ç°Œ
ç°
ç°¡
ç°¦
ç°§
ç°ª
ç°«
ç°·
ç°¸
ç°½
ç°¾
ç°¿
ç±
ç±ƒ
ç±Œ
ç±
ç±
ç±Ÿ
ç± 
ç±¤
ç±¬
ç±®
ç±²
ç±³
ç±»
ç±¼
ç±½
ç²„
ç²‰
ç²‘
ç²’
ç²•
ç²—
ç²˜
ç²Ÿ
ç²¤
ç²¥
ç²§
ç²ª
ç²®
ç²±
ç²²
ç²³
ç²µ
ç²¹
ç²¼
ç²½
ç²¾
ç²¿
ç³…
ç³Š
ç³
ç³•
ç³–
ç³—
ç³™
ç³œ
ç³ž
ç³Ÿ
ç³ 
ç³§
ç³¬
ç³¯
ç³°
ç³¸
ç³»
ç³¾
ç´€
ç´‚
ç´„
ç´…
ç´‰
ç´Š
ç´‹
ç´
ç´
ç´“
ç´”
ç´—
ç´˜
ç´™
ç´š
ç´›
ç´œ
ç´ 
ç´¡
ç´¢
ç´§
ç´«
ç´®
ç´¯
ç´°
ç´³
ç´¹
ç´º
çµ‚
çµƒ
çµ„
çµ†
çµŒ
çµ
çµ•
çµž
çµ¡
çµ¢
çµ¦
çµ¨
çµ®
çµ±
çµ²
çµ³
çµµ
çµ¶
çµ¹
ç¶
ç¶
ç¶‘
ç¶“
ç¶™
ç¶š
ç¶œ
ç¶ 
ç¶¢
ç¶¦
ç¶«
ç¶¬
ç¶­
ç¶±
ç¶²
ç¶´
ç¶µ
ç¶¸
ç¶º
ç¶»
ç¶½
ç¶¾
ç¶¿
ç·Š
ç·‹
ç·
ç·‘
ç·’
ç·˜
ç·š
ç·
ç·ž
ç· 
ç·£
ç·¨
ç·©
ç·¬
ç·¯
ç·´
ç·¹
ç·»
ç¸
ç¸„
ç¸ˆ
ç¸›
ç¸
ç¸£
ç¸«
ç¸®
ç¸±
ç¸´
ç¸·
ç¸½
ç¸¾
ç¹
ç¹ƒ
ç¹†
ç¹‡
ç¹‹
ç¹”
ç¹•
ç¹š
ç¹ž
ç¹¡
ç¹©
ç¹ª
ç¹«
ç¹­
ç¹³
ç¹¹
ç¹¼
ç¹½
çº‚
çºŒ
çº
çº
çº“
çº”
çº–
çºœ
çº 
çº¢
çº£
çº¤
çº¦
çº§
çº¨
çºª
çº«
çº¬
çº­
çº¯
çº°
çº±
çº²
çº³
çºµ
çº¶
çº·
çº¸
çº¹
çºº
çº½
çº¾
çº¿
ç»€
ç»ƒ
ç»„
ç»…
ç»†
ç»‡
ç»ˆ
ç»Š
ç»
ç»Ž
ç»
ç»‘
ç»’
ç»“
ç»”
ç»•
ç»˜
ç»™
ç»š
ç»›
ç»œ
ç»
ç»ž
ç»Ÿ
ç»¡
ç»¢
ç»£
ç»¥
ç»¦
ç»§
ç»©
ç»ª
ç»«
ç»­
ç»®
ç»¯
ç»°
ç»³
ç»´
ç»µ
ç»¶
ç»·
ç»¸
ç»»
ç»¼
ç»½
ç»¾
ç»¿
ç¼€
ç¼„
ç¼…
ç¼†
ç¼‡
ç¼ˆ
ç¼‰
ç¼Ž
ç¼“
ç¼”
ç¼•
ç¼–
ç¼˜
ç¼™
ç¼š
ç¼œ
ç¼
ç¼ 
ç¼¢
ç¼¤
ç¼¥
ç¼¨
ç¼©
ç¼ª
ç¼­
ç¼®
ç¼°
ç¼±
ç¼´
ç¼¸
ç¼º
ç¼½
ç½‚
ç½„
ç½Œ
ç½
ç½‘
ç½”
ç½•
ç½—
ç½š
ç½¡
ç½¢
ç½©
ç½ª
ç½®
ç½°
ç½²
ç½µ
ç½·
ç½¹
ç¾
ç¾…
ç¾ˆ
ç¾Š
ç¾Œ
ç¾Ž
ç¾”
ç¾š
ç¾ž
ç¾Ÿ
ç¾¡
ç¾£
ç¾¤
ç¾¥
ç¾§
ç¾¨
ç¾©
ç¾¯
ç¾²
ç¾¸
ç¾¹
ç¾½
ç¾¿
ç¿
ç¿…
ç¿Š
ç¿Œ
ç¿Ž
ç¿’
ç¿”
ç¿˜
ç¿Ÿ
ç¿ 
ç¿¡
ç¿¦
ç¿©
ç¿°
ç¿±
ç¿³
ç¿¹
ç¿»
ç¿¼
è€€
è€
è€ƒ
è€„
è€…
è€†
è€‹
è€Œ
è€
è€
è€’
è€•
è€—
è€˜
è€™
è€¦
è€¨
è€³
è€¶
è€·
è€¸
è€»
è€½
è€¿
è‚
è†
èŠ
è‹
èŒ
è’
è”
è–
è˜
èš
èž
èª
è¯
è°
è²
è³
è´
è¶
è·
è½
è¾
è¿
è‚ƒ
è‚„
è‚…
è‚†
è‚‡
è‚‰
è‚‹
è‚Œ
è‚
è‚“
è‚–
è‚˜
è‚š
è‚›
è‚
è‚ 
è‚¡
è‚¢
è‚¤
è‚¥
è‚©
è‚ª
è‚®
è‚¯
è‚±
è‚²
è‚´
è‚º
è‚½
è‚¾
è‚¿
èƒ€
èƒ
èƒƒ
èƒ„
èƒ†
èƒŒ
èƒ
èƒŽ
èƒ–
èƒš
èƒ›
èƒœ
èƒ
èƒž
èƒ¡
èƒ¤
èƒ¥
èƒ§
èƒ«
èƒ­
èƒ¯
èƒ°
èƒ±
èƒ³
èƒ´
èƒ¶
èƒ¸
èƒº
èƒ½
è„‚
è„…
è„†
è„‡
è„ˆ
è„‰
è„Š
è„
è„
è„
è„‘
è„“
è„–
è„˜
è„š
è„›
è„£
è„©
è„«
è„¯
è„±
è„²
è„³
è„¸
è„¹
è„¾
è…†
è…ˆ
è…Š
è…‹
è…Œ
è…Ž
è…
è…‘
è…“
è…”
è…•
è…¥
è…¦
è…©
è…«
è…­
è…®
è…°
è…±
è…³
è…´
è…¸
è…¹
è…º
è…»
è…¼
è…¾
è…¿
è†€
è†ˆ
è†Š
è†
è†‘
è†˜
è†š
è†›
è†œ
è†
è† 
è†¦
è†¨
è†©
è†³
è†º
è†»
è†½
è†¾
è†¿
è‡€
è‡‚
è‡ƒ
è‡†
è‡‰
è‡Š
è‡
è‡“
è‡˜
è‡Ÿ
è‡£
è‡¥
è‡§
è‡¨
è‡ª
è‡¬
è‡­
è‡³
è‡´
è‡º
è‡»
è‡¼
è‡¾
èˆ€
èˆ‚
èˆ…
èˆ†
èˆ‡
èˆˆ
èˆ‰
èˆŠ
èˆŒ
èˆ
èˆŽ
èˆ
èˆ’
èˆ”
èˆ–
èˆ—
èˆ›
èˆœ
èˆž
èˆŸ
èˆª
èˆ«
èˆ¬
èˆ°
èˆ±
èˆµ
èˆ¶
èˆ·
èˆ¸
èˆ¹
èˆº
èˆ¾
è‰‡
è‰‹
è‰˜
è‰™
è‰¦
è‰®
è‰¯
è‰°
è‰±
è‰²
è‰³
è‰·
è‰¹
è‰º
è‰¾
èŠ‚
èŠƒ
èŠˆ
èŠŠ
èŠ‹
èŠ
èŠŽ
èŠ’
èŠ™
èŠœ
èŠ
èŠ¡
èŠ¥
èŠ¦
èŠ©
èŠª
èŠ«
èŠ¬
èŠ­
èŠ®
èŠ¯
èŠ±
èŠ³
èŠ·
èŠ¸
èŠ¹
èŠ»
èŠ½
èŠ¾
è‹
è‹„
è‹‡
è‹‹
è‹
è‹
è‹‘
è‹’
è‹“
è‹”
è‹•
è‹—
è‹›
è‹œ
è‹ž
è‹Ÿ
è‹¡
è‹£
è‹¥
è‹¦
è‹«
è‹¯
è‹±
è‹·
è‹¹
è‹»
èŒ
èŒ‚
èŒƒ
èŒ„
èŒ…
èŒ‰
èŒŽ
èŒ
èŒ—
èŒœ
èŒ§
èŒ¨
èŒ«
èŒ¬
èŒ­
èŒ¯
èŒ±
èŒ²
èŒ´
èŒµ
èŒ¶
èŒ¸
èŒ¹
èŒ¼
è€
èƒ
è†
è‰
èŠ
è
è
è’
è”
è–
è˜
èš
èž
èŸ
è 
è¡
è£
è¤
è¥
è§
è¨
èª
è«
è¯
è³
è·
è¸
è»
è¼
è½
èŽ…
èŽ†
èŽ‰
èŽŠ
èŽŽ
èŽ’
èŽ“
èŽ–
èŽ˜
èŽž
èŽ 
èŽ¢
èŽ§
èŽª
èŽ«
èŽ±
èŽ²
èŽ´
èŽ·
èŽ¹
èŽº
èŽ½
èŽ¿
è€
è
è…
è‡
èˆ
èŠ
èŒ
è
è“
è–
è˜
èœ
èŸ
è 
è¡
è©
è¯
è±
è²
è¸
è½
è
èƒ
è„
èŠ
è‹
èŒ
è
èŽ
è˜
è
è¤
è¥
è¦
è§
è¨
è©
è¬
è±
èµ
è¸
è¼
è½
è‘†
è‘‰
è‘—
è‘š
è‘›
è‘¡
è‘£
è‘¦
è‘©
è‘«
è‘¬
è‘­
è‘¯
è‘±
è‘³
è‘µ
è‘·
è‘º
è’‚
è’‹
è’
è’”
è’™
è’œ
è’ž
è’Ÿ
è’¡
è’¨
è’²
è’¸
è’¹
è’»
è’¼
è’¿
è“
è“„
è“†
è“‰
è“‹
è“‘
è““
è“–
è“
è“Ÿ
è“¦
è“¬
è“®
è“¼
è“¿
è”‘
è”“
è””
è”—
è”˜
è”š
è”¡
è”£
è”¥
è”«
è”¬
è”­
è”µ
è”·
è”º
è”»
è”¼
è”½
è•
è•ƒ
è•ˆ
è•‰
è•Š
è•Ž
è•™
è•¤
è•¨
è•©
è•ª
è•­
è•²
è•´
è•»
è•¾
è–„
è–…
è–‡
è–ˆ
è–Š
è–
è–‘
è–”
è–™
è–›
è–¦
è–¨
è–©
è–ª
è–¬
è–¯
è–°
è–¹
è—‰
è—
è—
è—
è—“
è—•
è—œ
è—
è—¤
è—¥
è—©
è—¹
è—»
è—¿
è˜†
è˜‡
è˜Š
è˜‹
è˜‘
è˜š
è˜­
è˜¸
è˜¼
è˜¿
è™Ž
è™
è™
è™‘
è™”
è™•
è™š
è™›
è™œ
è™ž
è™Ÿ
è™¢
è™§
è™«
è™¬
è™±
è™¹
è™»
è™½
è™¾
èš€
èš
èš‚
èšŠ
èšŒ
èš“
èš•
èšœ
èš
èš£
èš¤
èš©
èšª
èš¯
èš±
èšµ
è›€
è›†
è›‡
è›Š
è›‹
è›Ž
è›
è›”
è›™
è››
è›Ÿ
è›¤
è›­
è›®
è›°
è›³
è›¹
è›»
è›¾
èœ€
èœ‚
èœƒ
èœ†
èœ‡
èœˆ
èœŠ
èœ
èœ’
èœ“
èœ•
èœ—
èœ˜
èœš
èœœ
èœ¡
èœ¢
èœ¥
èœ±
èœ´
èœ·
èœ»
èœ¿
è‡
èˆ
è‰
èŒ
èŽ
è•
è—
è™
èŸ
è 
è¦
è¨
è´
è¶
è¸
è¼
èž‚
èžƒ
èž
èžž
èž¢
èž¨
èž¯
èž³
èžº
èŸ€
èŸ„
èŸ†
èŸ‹
èŸŽ
èŸ‘
èŸ’
èŸ 
èŸ¬
èŸ²
èŸ¹
èŸ»
èŸ¾
è …
è 
è ”
è •
è ›
è Ÿ
è ¡
è ¢
è £
è ±
è ¶
è ¹
è »
è¡€
è¡„
è¡…
è¡†
è¡Œ
è¡
è¡“
è¡”
è¡—
è¡™
è¡›
è¡
è¡ž
è¡¡
è¡¢
è¡£
è¡¥
è¡¨
è¡©
è¡«
è¡¬
è¡®
è¡°
è¡²
è¡·
è¡¹
è¡¾
è¡¿
è¢
è¢‚
è¢„
è¢…
è¢ˆ
è¢‹
è¢
è¢’
è¢–
è¢œ
è¢ž
è¢¤
è¢ª
è¢«
è¢­
è¢±
è£
è£‚
è£…
è£†
è£Š
è£
è£”
è£•
è£˜
è£™
è£œ
è£
è£Ÿ
è£¡
è£¤
è£¨
è£±
è£³
è£´
è£¸
è£¹
è£½
è£¾
è¤‚
è¤‡
è¤
è¤’
è¤“
è¤”
è¤š
è¤¥
è¤ª
è¤«
è¤²
è¤¶
è¤»
è¥
è¥„
è¥Ÿ
è¥ 
è¥ª
è¥¬
è¥¯
è¥²
è¥¿
è¦
è¦ƒ
è¦†
è¦‡
è¦‹
è¦
è¦“
è¦–
è¦š
è¦¦
è¦§
è¦ª
è¦¬
è¦³
è¦·
è¦º
è¦½
è§€
è§
è§‚
è§„
è§…
è§†
è§ˆ
è§‰
è§Š
è§Ž
è§
è§‘
è§’
è§ž
è§£
è§¥
è§¦
è§¸
è¨€
è¨‚
è¨ˆ
è¨Š
è¨Ž
è¨“
è¨•
è¨–
è¨—
è¨˜
è¨›
è¨
è¨Ÿ
è¨£
è¨¥
è¨ª
è¨­
è¨±
è¨³
è¨´
è¨¶
è¨º
è¨»
è¨¼
è©†
è©
è©”
è©•
è©›
è©ž
è© 
è©¡
è©¢
è©£
è©¦
è©©
è©«
è©¬
è©­
è©®
è©°
è©±
è©²
è©³
è©¹
è©¼
èª…
èª‡
èª‰
èªŒ
èª
èª“
èª•
èª˜
èªž
èª 
èª¡
èª£
èª¤
èª¥
èª¦
èª¨
èªª
èª¬
èª­
èª°
èª²
èª¹
èª¼
èª¿
è«„
è«‡
è«‹
è«
è«’
è«–
è«—
è«œ
è«¡
è«¦
è«§
è««
è«­
è«®
è«±
è«³
è«·
è«¸
è«º
è«¾
è¬€
è¬
è¬‚
è¬„
è¬Š
è¬Ž
è¬
è¬”
è¬—
è¬™
è¬›
è¬
è¬ 
è¬¨
è¬¬
è¬¹
è¬¾
è­
è­‰
è­Ž
è­
è­˜
è­™
è­š
è­œ
è­¦
è­¬
è­¯
è­°
è­²
è­´
è­·
è­½
è®€
è®Š
è®“
è®š
è®ž
è®¡
è®¢
è®¤
è®¥
è®§
è®¨
è®©
è®ª
è®«
è®­
è®®
è®¯
è®°
è®²
è®³
è®´
è®¶
è®·
è®¸
è®¹
è®º
è®¼
è®½
è®¾
è®¿
è¯€
è¯
è¯ƒ
è¯„
è¯…
è¯†
è¯ˆ
è¯‰
è¯Š
è¯‹
è¯
è¯
è¯‘
è¯•
è¯—
è¯˜
è¯™
è¯š
è¯›
è¯
è¯ž
è¯Ÿ
è¯ 
è¯¡
è¯¢
è¯£
è¯¤
è¯¥
è¯¦
è¯§
è¯©
è¯«
è¯¬
è¯­
è¯¯
è¯°
è¯±
è¯²
è¯´
è¯µ
è¯¶
è¯·
è¯¸
è¯º
è¯»
è¯½
è¯¾
è¯¿
è°€
è°
è°ƒ
è°„
è°…
è°†
è°ˆ
è°Š
è°‹
è°Œ
è°
è°Ž
è°
è°
è°‘
è°’
è°“
è°”
è°•
è°—
è°˜
è°™
è°š
è°›
è°œ
è°Ÿ
è°¢
è°£
è°¤
è°¥
è°¦
è°§
è°¨
è°©
è°ª
è°¬
è°­
è°¯
è°±
è°²
è°´
è°¶
è°·
è±
è±†
è±‡
è±ˆ
è±‰
è±Š
è±Œ
è±Ž
è±
è±”
è±š
è±¡
è±¢
è±ª
è±«
è±¬
è±¹
è±º
è²‚
è²…
è²Œ
è²“
è²”
è²˜
è²
è²ž
è² 
è²¡
è²¢
è²§
è²¨
è²©
è²ª
è²«
è²¬
è²¯
è²°
è²³
è²´
è²¶
è²·
è²¸
è²»
è²¼
è²½
è²¿
è³€
è³
è³‚
è³ƒ
è³„
è³‡
è³ˆ
è³Š
è³‘
è³“
è³œ
è³ž
è³ 
è³¡
è³¢
è³£
è³¤
è³¦
è³ª
è³¬
è³­
è³´
è³º
è³¼
è³½
è´…
è´ˆ
è´Š
è´
è´
è´“
è´–
è´›
è´
è´ž
è´Ÿ
è´¡
è´¢
è´£
è´¤
è´¥
è´¦
è´§
è´¨
è´©
è´ª
è´«
è´¬
è´­
è´®
è´¯
è´°
è´±
è´²
è´´
è´µ
è´·
è´¸
è´¹
è´º
è´»
è´¼
è´¾
è´¿
èµ
èµ‚
èµƒ
èµ„
èµ…
èµˆ
èµŠ
èµ‹
èµŒ
èµŽ
èµ
èµ
èµ“
èµ”
èµ–
èµ˜
èµš
èµ›
èµ
èµž
èµ 
èµ¡
èµ¢
èµ£
èµ¤
èµ¦
èµ§
èµ«
èµ­
èµ°
èµ³
èµ´
èµµ
èµ¶
èµ·
è¶
è¶…
è¶Š
è¶‹
è¶•
è¶™
è¶Ÿ
è¶£
è¶¨
è¶³
è¶´
è¶µ
è¶¸
è¶º
è¶¾
è·ƒ
è·„
è·†
è·‹
è·Œ
è·Ž
è·‘
è·–
è·š
è·›
è·
è·Ÿ
è·¡
è·¤
è·¨
è·©
è·ª
è·¯
è·³
è·µ
è··
è·¹
è·º
è·»
è¸‰
è¸Š
è¸Œ
è¸
è¸
è¸
è¸ž
è¸Ÿ
è¸¢
è¸©
è¸ª
è¸®
è¸±
è¸´
è¸µ
è¸¹
è¹‚
è¹„
è¹‡
è¹ˆ
è¹‰
è¹Š
è¹‹
è¹‘
è¹’
è¹™
è¹Ÿ
è¹£
è¹¤
è¹¦
è¹©
è¹¬
è¹­
è¹²
è¹´
è¹¶
è¹º
è¹¼
è¹¿
èº
èº‡
èº‰
èºŠ
èº‹
èº
èº
èºª
èº«
èº¬
èº¯
èº²
èºº
è»€
è»Š
è»‹
è»Œ
è»
è»’
è»Ÿ
è»¢
è»¸
è»¼
è»½
è»¾
è¼ƒ
è¼‰
è¼’
è¼“
è¼”
è¼•
è¼›
è¼
è¼Ÿ
è¼©
è¼ª
è¼¯
è¼¸
è¼»
è¼¾
è¼¿
è½„
è½…
è½†
è½‰
è½
è½Ž
è½Ÿ
è½¦
è½§
è½¨
è½©
è½¬
è½­
è½®
è½¯
è½°
è½²
è½´
è½¶
è½»
è½¼
è½½
è½¿
è¾ƒ
è¾„
è¾…
è¾†
è¾‡
è¾ˆ
è¾‰
è¾Š
è¾
è¾
è¾‘
è¾“
è¾•
è¾–
è¾—
è¾˜
è¾™
è¾›
è¾œ
è¾ž
è¾Ÿ
è¾£
è¾¦
è¾¨
è¾©
è¾«
è¾­
è¾®
è¾¯
è¾°
è¾±
è¾²
è¾¹
è¾º
è¾»
è¾¼
è¾½
è¾¾
è¿
è¿‚
è¿„
è¿…
è¿‡
è¿ˆ
è¿Ž
è¿
è¿‘
è¿”
è¿˜
è¿™
è¿›
è¿œ
è¿
è¿ž
è¿Ÿ
è¿¢
è¿¤
è¿¥
è¿¦
è¿©
è¿ª
è¿«
è¿­
è¿°
è¿´
è¿·
è¿¸
è¿¹
è¿º
è¿½
é€€
é€
é€‚
é€ƒ
é€…
é€†
é€‰
é€Š
é€
é€
é€
é€’
é€”
é€•
é€—
é€™
é€š
é€›
é€
é€ž
é€Ÿ
é€ 
é€¢
é€£
é€®
é€±
é€²
é€µ
é€¶
é€¸
é€»
é€¼
é€¾
é
é‚
é…
é‡
éŠ
é‹
é
éŽ
é
é
é‘
é’
é“
é”
é•
é—
é™
é›
éœ
éž
é 
é¢
é£
é¥
é¨
é©
é­
é®
é²
é´
éµ
é¶
é·
é¸
éº
é¼
é½
é¿
é‚€
é‚
é‚‚
é‚ƒ
é‚„
é‚‡
é‚ˆ
é‚Š
é‚‹
é‚
é‚‘
é‚“
é‚•
é‚›
é‚
é‚¢
é‚£
é‚¦
é‚¨
é‚ª
é‚¬
é‚®
é‚¯
é‚°
é‚±
é‚³
é‚µ
é‚¸
é‚¹
é‚º
é‚»
éƒ
éƒ…
éƒŠ
éƒŽ
éƒ‘
éƒœ
éƒ
éƒ¡
éƒ¢
éƒ¤
éƒ¦
éƒ§
éƒ¨
éƒ«
éƒ­
éƒ´
éƒµ
éƒ·
éƒ¸
éƒ½
é„‚
é„‰
é„’
é„”
é„™
é„ž
é„¢
é„§
é„­
é„°
é„±
é„²
é„º
é…‰
é…Š
é…‹
é…Œ
é…
é…
é…’
é…—
é…š
é…
é…¢
é…£
é…¥
é…©
é…ª
é…¬
é…®
é…¯
é…°
é…±
é…µ
é…¶
é…·
é…¸
é…¿
é†ƒ
é†‡
é†‰
é†‹
é†
é†
é†’
é†š
é†›
é†œ
é†ž
é†£
é†ª
é†«
é†¬
é†®
é†¯
é†´
é†º
é‡€
é‡
é‡‡
é‡‰
é‡Š
é‡‹
é‡Œ
é‡
é‡Ž
é‡
é‡
é‡‘
é‡—
é‡˜
é‡œ
é‡
é‡£
é‡¦
é‡§
é‡µ
éˆ€
éˆ‰
éˆ
éˆŽ
éˆ”
éˆ•
éˆž
éˆ£
éˆ¦
éˆª
éˆ´
éˆº
éˆ¾
é‰€
é‰„
é‰…
é‰‰
é‰‘
é‰—
é‰š
é‰›
é‰¤
é‰´
é‰»
éŠ€
éŠƒ
éŠ…
éŠ‘
éŠ“
éŠ–
éŠ˜
éŠœ
éŠ¬
éŠ­
éŠ®
éŠ³
éŠ·
éŠ¹
é‹
é‹…
é‹’
é‹¤
é‹ª
é‹°
é‹¸
é‹¼
éŒ„
éŒ
éŒ˜
éŒš
éŒ 
éŒ¢
éŒ¦
éŒ¨
éŒ«
éŒ®
éŒ¯
éŒ²
éŒ³
éŒ¶
éŠ
é‹
é
é›
é¥
é°
éµ
éº
é¾
éŽ‚
éŽŠ
éŽŒ
éŽ
éŽ”
éŽ–
éŽ—
éŽš
éŽ§
éŽ¬
éŽ®
éŽ³
éˆ
é–
é—
é˜
éž
éŸ
é¡
é¢
é¤
é½
é˜
é®
é²
é³
éµ
é¸
éº
é‘„
é‘Š
é‘‘
é‘’
é‘£
é‘«
é‘°
é‘²
é‘¼
é‘½
é‘¾
é‘¿
é’ˆ
é’‰
é’Š
é’Ž
é’
é’’
é’“
é’—
é’™
é’›
é’œ
é’
é’ž
é’Ÿ
é’ 
é’¡
é’¢
é’£
é’¤
é’¥
é’¦
é’§
é’¨
é’©
é’®
é’¯
é’°
é’±
é’³
é’´
é’µ
é’º
é’»
é’¼
é’¾
é’¿
é“€
é“
é“‚
é“ƒ
é“„
é“…
é“†
é“‰
é“Ž
é“
é“›
é“œ
é“
é“ 
é“¡
é“¢
é“£
é“¤
é“¨
é“©
é“¬
é“­
é“®
é“°
é“²
é“µ
é“¶
é“¸
é“º
é“¾
é“¿
é”€
é”
é”‚
é”„
é”…
é”†
é”ˆ
é”‰
é”‹
é”Œ
é”
é”
é”‘
é”™
é”š
é”Ÿ
é”¡
é”¢
é”£
é”¤
é”¥
é”¦
é”­
é”®
é”¯
é”°
é”²
é”µ
é”¹
é”º
é”»
é•€
é•
é•‚
é•‡
é•‰
é•Œ
é•
é•
é•‘
é••
é•–
é•—
é•›
é•œ
é•£
é•­
é•¯
é•°
é•³
é•¶
é•·
é•¿
é–€
é–ƒ
é–‰
é–‹
é–Ž
é–
é–‘
é–’
é–“
é–”
é–˜
é–¡
é–¢
é–£
é–¥
é–¨
é–©
é–±
é–²
é–¹
é–»
é–¾
é—†
é—‡
é—Š
é—Œ
é—
é—”
é—•
é—–
é—˜
é—œ
é—¡
é—¢
é—¨
é—ª
é—«
é—­
é—®
é—¯
é—°
é—²
é—´
é—µ
é—·
é—¸
é—¹
é—º
é—»
é—½
é—¾
é˜€
é˜
é˜‚
é˜…
é˜†
é˜‡
é˜ˆ
é˜‰
é˜Ž
é˜
é˜‘
é˜”
é˜•
é˜–
é˜™
é˜š
é˜œ
é˜Ÿ
é˜¡
é˜ª
é˜®
é˜±
é˜²
é˜³
é˜´
é˜µ
é˜¶
é˜»
é˜¿
é™€
é™‚
é™„
é™…
é™†
é™‡
é™ˆ
é™‹
é™Œ
é™
é™
é™•
é™›
é™
é™ž
é™Ÿ
é™¡
é™¢
é™£
é™¤
é™¨
é™©
é™ª
é™°
é™²
é™³
é™µ
é™¶
é™·
é™¸
é™º
é™½
éš…
éš†
éšˆ
éšŠ
éš‹
éš
éšŽ
éš
éš
éš”
éš•
éš˜
éš™
éš›
éšœ
éš 
éš£
éš§
éš¨
éšª
éš±
éš´
éš¶
éš¸
éš»
éš¼
éš½
éš¾
é›€
é›
é›„
é›…
é›†
é›‡
é›‰
é›‹
é›Œ
é›
é›Ž
é›
é›‘
é›’
é›•
é›–
é›™
é››
é›œ
é›ž
é›¢
é›£
é›¨
é›ª
é›¯
é›°
é›²
é›³
é›¶
é›·
é›¹
é›»
é›¾
éœ€
éœ
éœ„
éœ†
éœ‡
éœˆ
éœ‰
éœŠ
éœ
éœŽ
éœ
éœ‘
éœ“
éœ–
éœœ
éœž
éœ§
éœ­
éœ°
éœ²
éœ¸
éœ¹
éœ½
éœ¾
é‚
é„
éˆ
é’
é“
é–
é™
éš
é›
éœ
éž
é 
é¡
é¢
é¥
é¦
é©
é³
é´
é¶
é¼
éž…
éž‹
éž
éž
éž‘
éž˜
éž 
éž£
éž¦
éž­
éŸ†
éŸ‹
éŸŒ
éŸ“
éŸœ
éŸ¦
éŸ§
éŸ©
éŸ¬
éŸ­
éŸ³
éŸµ
éŸ¶
éŸ»
éŸ¿
é 
é ‚
é ƒ
é …
é †
é ˆ
é Œ
é 
é ‘
é ’
é “
é —
é ˜
é œ
é ¡
é ¤
é «
é ­
é °
é ·
é ¸
é ¹
é »
é ¼
é¡†
é¡Œ
é¡
é¡Ž
é¡
é¡”
é¡˜
é¡›
é¡ž
é¡§
é¡«
é¡¯
é¡±
é¡´
é¡µ
é¡¶
é¡·
é¡¹
é¡º
é¡»
é¡¼
é¡½
é¡¾
é¡¿
é¢
é¢‚
é¢„
é¢…
é¢†
é¢‡
é¢ˆ
é¢‰
é¢Š
é¢Œ
é¢
é¢
é¢‘
é¢“
é¢”
é¢–
é¢—
é¢˜
é¢š
é¢›
é¢œ
é¢
é¢ž
é¢ 
é¢¡
é¢¢
é¢¤
é¢¦
é¢§
é¢¨
é¢¯
é¢±
é¢³
é¢¶
é¢¼
é£„
é£†
é£Ž
é£’
é£“
é£•
é£˜
é£™
é£š
é£›
é£ž
é£Ÿ
é£¢
é£¨
é£©
é£ª
é£¯
é£²
é£¼
é£½
é£¾
é¤ƒ
é¤…
é¤‰
é¤Š
é¤Œ
é¤
é¤’
é¤“
é¤˜
é¤š
é¤›
é¤ž
é¤¡
é¤¨
é¤®
é¤µ
é¤¾
é¥…
é¥ˆ
é¥‹
é¥Œ
é¥
é¥‘
é¥’
é¥•
é¥—
é¥ž
é¥¥
é¥¨
é¥ª
é¥¬
é¥­
é¥®
é¥¯
é¥°
é¥±
é¥²
é¥´
é¥µ
é¥¶
é¥·
é¥º
é¥¼
é¥½
é¥¿
é¦€
é¦
é¦„
é¦…
é¦†
é¦ˆ
é¦‹
é¦
é¦
é¦’
é¦”
é¦–
é¦—
é¦™
é¦¥
é¦¨
é¦¬
é¦­
é¦®
é¦³
é¦´
é§
é§„
é§…
é§†
é§
é§’
é§•
é§›
é§
é§­
é§±
é§¿
é¨
é¨Ž
é¨
é¨“
é¨™
é¨¨
é¨°
é¨·
é©€
é©…
é©Š
é©
é©’
é©•
é©—
é©š
é©›
é©Ÿ
é©¢
é©¥
é©¬
é©­
é©®
é©¯
é©°
é©±
é©³
é©´
é©¶
é©·
é©¸
é©¹
é©»
é©¼
é©¾
é©¿
éª
éª‚
éª„
éª…
éª†
éª‡
éªˆ
éªŠ
éª‹
éªŒ
éª
éª
éª‘
éª—
éªš
éª›
éªœ
éªž
éª 
éª¡
éª¤
éª¥
éª§
éª¨
éª¯
éª°
éª¶
éª·
éª¸
éª¼
é«‚
é«…
é«‹
é«
é«’
é«“
é«”
é«–
é«˜
é«¦
é«ª
é«®
é«¯
é«»
é¬ƒ
é¬†
é¬
é¬“
é¬š
é¬Ÿ
é¬¢
é¬£
é¬¥
é¬§
é¬±
é¬¼
é­
é­‚
é­„
é­…
é­‡
é­
é­
é­”
é­˜
é­š
é­¯
é­·
é®‘
é®¨
é®ª
é®­
é®®
é¯‰
é¯Š
é¯–
é¯›
é¯¨
é¯°
é¯½
é°
é°“
é°­
é°²
é°»
é°¾
é±ˆ
é±‰
é±”
é±—
é±·
é±¸
é±¼
é±¿
é²
é²ˆ
é²
é²‘
é²›
é²œ
é²Ÿ
é²¢
é²¤
é²¨
é²«
é²±
é²²
é²¶
é²·
é²¸
é³ƒ
é³„
é³…
é³Œ
é³
é³•
é³–
é³—
é³
é³ž
é³¥
é³©
é³³
é³´
é³¶
é´‰
é´•
é´›
é´¦
é´¨
é´»
é´¿
éµ‘
éµœ
éµ
éµ¡
éµ¬
éµ°
éµ²
é¶˜
é¶©
é¶¯
é¶´
é·—
é·²
é·¹
é·º
é¸š
é¸ž
é¸Ÿ
é¸ 
é¸¡
é¸¢
é¸£
é¸¥
é¸¦
é¸¨
é¸ª
é¸­
é¸¯
é¸³
é¸µ
é¸½
é¸¾
é¸¿
é¹‚
é¹ƒ
é¹„
é¹…
é¹ˆ
é¹‰
é¹Š
é¹Œ
é¹
é¹‘
é¹•
é¹˜
é¹œ
é¹ž
é¹¤
é¹¦
é¹§
é¹«
é¹­
é¹°
é¹³
é¹µ
é¹¹
é¹¼
é¹½
é¹¿
éº‚
éº‹
éº’
éº“
éº—
éº
éºŸ
éº¥
éº¦
éº©
éº´
éºµ
éº¸
éºº
éº»
éº¼
éº½
éº¾
é»ƒ
é»„
é»
é»Ž
é»
é»‘
é»’
é»”
é»˜
é»›
é»œ
é»
é»ž
é» 
é»¨
é»¯
é»´
é¼‹
é¼Ž
é¼
é¼“
é¼ 
é¼¬
é¼¹
é¼»
é¼¾
é½
é½Š
é½‹
é½
é½’
é½¡
é½¢
é½£
é½¦
é½¿
é¾„
é¾…
é¾ˆ
é¾Š
é¾‹
é¾Œ
é¾
é¾
é¾”
é¾•
é¾™
é¾š
é¾›
é¾œ
é¾Ÿ
ï¸°
ï¸±
ï¸¶
ï¸¿
ï¹
ï¹‚
ï¹
ï¹
ï¹
ï¹‘
ï¹’
ï¹”
ï¹•
ï¹–
ï¹—
ï¹™
ï¹š
ï¹
ï¹ž
ï¹¡
ï¹£
ï¼
ï¼‚
ï¼ƒ
ï¼„
ï¼…
ï¼†
ï¼‡
ï¼ˆ
ï¼‰
ï¼Š
ï¼‹
ï¼Œ
ï¼
ï¼Ž
ï¼
ï¼
ï¼‘
ï¼’
ï¼“
ï¼”
ï¼•
ï¼–
ï¼—
ï¼˜
ï¼™
ï¼š
ï¼›
ï¼œ
ï¼
ï¼ž
ï¼Ÿ
ï¼ 
ï¼»
ï¼¼
ï¼½
ï¼¾
ï¼¿
ï½€
ï½
ï½‚
ï½ƒ
ï½„
ï½…
ï½†
ï½‡
ï½ˆ
ï½‰
ï½Š
ï½‹
ï½Œ
ï½
ï½Ž
ï½
ï½
ï½‘
ï½’
ï½“
ï½”
ï½•
ï½–
ï½—
ï½˜
ï½™
ï½š
ï½›
ï½œ
ï½
ï½ž
ï½¡
ï½¢
ï½£
ï½¤
ï½¥
ï½¯
ï½°
ï½²
ï½¸
ï½¼
ï½½
ï¾„
ï¾‰
ï¾Œ
ï¾—
ï¾™
ï¾
ï¾ž
ï¾Ÿ
ï¿£
ï¿¥
ðŸ‘
ðŸ”¥
ðŸ˜‚
ðŸ˜Ž
...
yam
10
2017
12
11
2016
20
30
15
06
lofter
##s
2015
by
16
14
18
13
24
17
2014
21
##0
22
19
25
23
com
100
00
05
2013
##a
03
09
08
28
##2
50
01
04
##1
27
02
2012
##3
26
##e
07
##8
##5
##6
##4
##9
##7
29
2011
40
##t
2010
##o
##d
##i
2009
##n
app
www
the
##m
31
##c
##l
##y
##r
##g
2008
60
http
200
qq
##p
80
##f
google
pixnet
90
cookies
tripadvisor
500
##er
##k
35
##h
facebook
2007
2000
70
##b
of
##x
##u
45
300
iphone
32
1000
2006
48
ip
36
in
38
3d
##w
##ing
55
ctrip
##on
##v
33
##ã®
to
34
400
id
2005
it
37
windows
llc
top
99
42
39
000
led
at
##an
41
51
52
46
49
43
53
44
##z
android
58
and
59
2004
56
vr
##ã‹
5000
2003
47
blogthis
twitter
54
##le
150
ok
2018
57
75
cn
no
ios
##in
##mm
##00
800
on
te
3000
65
2001
360
95
ig
lv
120
##ng
##ã‚’
##us
##ã«
pc
ã¦ã™
â”€â”€
600
##te
85
2002
88
##ed
html
ncc
wifi
email
64
blog
is
##10
##ã¦
mail
online
##al
dvd
##ic
studio
##ã¯
##â„ƒ
##ia
##ã¨
line
vip
72
##q
98
##ce
##en
for
##is
##ra
##es
##j
usb
net
cp
1999
asia
4g
##cm
diy
new
3c
##ãŠ
ta
66
language
vs
apple
tw
86
web
##ne
ipad
62
you
##re
101
68
##tion
ps
de
bt
pony
atm
##2017
1998
67
##ch
ceo
##or
go
##na
av
pro
cafe
96
pinterest
97
63
pixstyleme3c
##ta
more
said
##2016
1997
mp3
700
##ll
nba
jun
##20
92
tv
1995
pm
61
76
nbsp
250
##ie
linux
##ma
cd
110
hd
##17
78
##ion
77
6000
am
##th
##st
94
##se
##et
69
180
gdp
my
105
81
abc
89
flash
79
one
93
1990
1996
##ck
gps
##ã‚‚
##ly
web885
106
2020
91
##ge
4000
1500
xd
boss
isbn
1994
org
##ry
me
love
##11
0fork
73
##12
3g
##ter
##ar
71
82
##la
hotel
130
1970
pk
83
87
140
ie
##os
##30
##el
74
##50
seo
cpu
##ml
p2p
84
may
##ã‚‹
sun
tue
internet
cc
posted
youtube
##at
##ãƒ³
##man
ii
##ãƒ«
##15
abs
nt
pdf
yahoo
ago
1980
##it
news
mac
104
##ã¦ã™
##me
##ã‚Š
java
1992
spa
##de
##nt
hk
all
plus
la
1993
##mb
##16
##ve
west
##da
160
air
##ã„
##ps
ã‹ã‚‰
##to
1989
logo
htc
php
https
fi
momo
##son
sat
##ke
##80
ebd
suv
wi
day
apk
##88
##um
mv
galaxy
wiki
or
brake
##ã‚¹
1200
ã™ã‚‹
this
1991
mon
##ã“
â¤2017
po
##ãªã„
javascript
life
home
june
##ss
system
900
##ãƒ¼
##ï¼
pp
1988
world
fb
4k
br
##as
ic
ai
leonardo
safari
##60
live
free
xx
wed
win7
kiehl
##co
lg
o2o
##go
us
235
1949
mm
ã—ã„
vfm
kanye
##90
##2015
##id
jr
##ey
123
rss
##sa
##ro
##am
##no
thu
fri
350
##sh
##ki
103
comments
name
##ã®ã¦
##pe
##ine
max
1987
8000
uber
##mi
##ton
wordpress
office
1986
1985
##ment
107
bd
win10
##ld
##li
gmail
bb
dior
##rs
##ri
##rd
##ã¾ã™
up
cad
##Â®
dr
ã—ã¦
read
##21
ã‚’ãŠ
##io
##99
url
1984
pvc
paypal
show
policy
##40
##ty
##18
with
##â˜…
##01
txt
102
##ba
dna
from
post
mini
ar
taiwan
john
##ga
privacy
agoda
##13
##ny
word
##24
##22
##by
##ur
##hz
1982
##ang
265
cookie
netscape
108
##ka
##ï½ž
##ad
house
share
note
ibm
code
hello
nike
sim
survey
##016
1979
1950
wikia
##32
##017
5g
cbc
##tor
##kg
1983
##rt
##14
campaign
store
2500
os
##ct
##ts
##Â°
170
api
##ns
365
excel
##ãª
##ao
##ã‚‰
##ã—
ï½žï½ž
##nd
university
163
ã«ã¯
518
##70
##ya
##il
##25
pierre
ipo
0020
897
##23
hotels
##ian
ã®ãŠ
125
years
6606
##ers
##26
high
##day
time
##ay
bug
##line
##ã
##ã™
##be
xp
talk2yam
yamservice
10000
coco
##dy
sony
##ies
1978
microsoft
david
people
##ha
1960
instagram
intel
ãã®
##ot
iso
1981
##va
115
##mo
##land
xxx
man
co
ltxsw
##ation
baby
220
##pa
##ol
1945
7000
tag
450
##ue
msn
##31
oppo
##ãƒˆ
##ca
control
##om
st
chrome
##ure
##ã‚“
be
##ã
lol
##19
ã—ãŸ
##bo
240
lady
##100
##way
##ã‹ã‚‰
4600
##ko
##do
##un
4s
corporation
168
##ni
herme
##28
ï½ƒï½
978
##up
##06
ui
##ds
ppt
admin
three
ã—ã¾ã™
bbc
re
128
##48
ca
##015
##35
hp
##ee
tpp
##ãŸ
##ive
Ã—Ã—
root
##cc
##ã¾ã—ãŸ
##ble
##ity
adobe
park
114
et
oled
city
##ex
##ler
##ap
china
##book
20000
view
##ice
global
##km
your
hong
##mg
out
##ms
ng
ebay
##29
menu
ubuntu
##cy
rom
##view
open
ktv
do
server
##lo
if
english
##ã­
##ï¼•
##oo
1600
##02
step1
kong
club
135
july
inc
1976
mr
hi
##net
touch
##ls
##ii
michael
lcd
##05
##33
phone
james
step2
1300
ios9
##box
dc
##ï¼’
##ley
samsung
111
280
pokemon
css
##ent
##les
ã„ã„ãˆ
##ï¼‘
s8
atom
play
bmw
##said
sa
etf
ctrl
â™¥yoyoâ™¥
##55
2025
##2014
##66
adidas
amazon
1958
##ber
##ner
visa
##77
##der
1800
connectivity
##hi
firefox
109
118
hr
so
style
mark
pop
ol
skip
1975
as
##27
##ir
##61
190
mba
##ã†
##ai
le
##ver
1900
cafe2017
lte
super
113
129
##ron
amd
like
##â˜†
are
##ster
we
##sk
paul
data
international
##ft
longchamp
ssd
good
##ãƒ¼ãƒˆ
##ti
reply
##my
â†“â†“â†“
apr
star
##ker
source
136
js
112
get
force
photo
##one
126
##2013
##ow
link
bbs
1972
goods
##lin
python
119
##ip
game
##ics
##ã¾ã›ã‚“
blue
##â—
520
##45
page
itunes
##03
1955
260
1968
gt
gif
618
##ff
##47
group
ããŸã•ã„
about
bar
ganji
##nce
music
lee
not
1977
1971
1973
##per
an
faq
comment
##ã£ã¦
days
##ock
116
##bs
1974
1969
v1
player
1956
xbox
sql
fm
f1
139
##ah
210
##lv
##mp
##000
melody
1957
##ï¼“
550
17life
199
1966
xml
market
##au
##71
999
##04
what
gl
##95
##age
tips
##68
book
##ting
mysql
can
1959
230
##ung
wonderland
watch
10â„ƒ
##ction
9000
mar
mobile
1946
1962
article
##db
part
â–²top
party
ã£ã¦
1967
1964
1948
##07
##ore
##op
ã“ã®
dj
##78
##38
010
main
225
1965
##ong
art
320
ad
134
020
##73
117
pm2
japan
228
##08
ts
1963
##ica
der
sm
##36
2019
##wa
ct
##ï¼—
##ã‚„
##64
1937
homemesh
search
##85
##ã‚Œã¯
##tv
##di
macbook
##ï¼™
##ããŸã•ã„
service
##â™¥
type
ã£ãŸ
750
##ier
##si
##75
##ã„ã¾ã™
##ok
best
##ãƒƒãƒˆ
goris
lock
##ã£ãŸ
cf
3m
big
##ut
ftp
carol
##vi
ï¼‘ï¼
1961
happy
sd
##ac
122
anti
pe
cnn
iii
1920
138
##ãƒ©
1940
esp
jan
tags
##98
##51
august
vol
##86
154
##â„¢
##fs
##ã‚Œ
##sion
design
ac
##ãƒ 
press
jordan
ppp
that
key
check
##ï¼–
##tt
##ãŽ¡
1080p
##lt
power
##42
1952
##bc
vivi
##ãƒƒã‚¯
he
133
121
jpg
##rry
201
175
3500
1947
nb
##ted
##rn
ã—ã¦ã„ã¾ã™
1954
usd
##t00
master
##ãƒ³ã‚¯
001
model
##58
al
##09
1953
##34
ram
goo
ã¦ã‚‚
##ui
127
1930
red
##ary
rpg
item
##pm
##41
270
##za
project
##2012
hot
td
blogabstract
##ger
##62
650
##44
gr2
##ã—ã¾ã™
##ï½
black
electronic
nfc
year
asus
ã¾ãŸ
html5
cindy
##hd
m3
132
esc
##od
booking
##53
fed
tvb
##81
##ina
mit
165
##ã„ã‚‹
chan
192
distribution
next
ã«ãªã‚‹
peter
bios
steam
cm
1941
ã«ã‚‚
pk10
##ix
##65
##91
dec
nasa
##ana
icecat
00z
b1
will
##46
li
se
##ji
##ã¿
##ard
oct
##ain
jp
##ze
##bi
cio
##56
smart
h5
##39
##port
curve
vpn
##nm
##dia
utc
##ã‚ã‚Š
12345678910
##52
rmvb
chanel
a4
miss
##and
##im
media
who
##63
she
girl
5s
124
vera
##ã—ã¦
class
vivo
king
##ãƒ•
##ei
national
ab
1951
5cm
888
145
ipod
ap
1100
5mm
211
ms
2756
##69
mp4
msci
##po
##89
131
mg
index
380
##bit
##out
##zz
##97
##67
158
apec
##ï¼˜
photoshop
opec
ï¿¥799
ã¦ã¯
##96
##tes
##ast
2g
â—‹â—‹
##ãƒ¼ãƒ«
ï¿¥2899
##ling
##ã‚ˆ
##ory
1938
##ical
kitty
content
##43
step3
##cn
win8
155
vc
1400
iphone7
robert
##ã—ãŸ
tcl
137
beauty
##87
en
dollars
##ys
##oc
step
pay
yy
a1
##2011
##lly
##ks
##â™ª
1939
188
download
1944
sep
exe
ph
ã„ã¾ã™
school
gb
center
pr
street
##board
uv
##37
##lan
winrar
##que
##ua
##com
1942
1936
480
gpu
##ï¼”
ettoday
fu
tom
##54
##ren
##via
149
##72
b2b
144
##79
##tch
rose
arm
mb
##49
##ial
##nn
nvidia
step4
mvp
00ãŽ¡
york
156
##ã‚¤
how
cpi
591
2765
gov
kg
joe
##xx
mandy
pa
##ser
copyright
fashion
1935
don
##ã‘
ecu
##ist
##art
erp
wap
have
##lm
talk
##ek
##ning
##if
ch
##ite
video
1943
cs
san
iot
look
##84
##2010
##ku
october
##ux
trump
##hs
##ide
box
141
first
##ins
april
##ight
##83
185
angel
protected
aa
151
162
x1
m2
##fe
##Ã—
##ho
size
143
min
ofo
fun
gomaji
ex
hdmi
food
dns
march
chris
kevin
##ã®ã‹
##lla
##pp
##ec
ag
ems
6s
720p
##rm
##ham
off
##92
asp
team
fandom
ed
299
â–Œâ™¥
##ell
info
ã•ã‚Œã¦ã„ã¾ã™
##82
sina
4066
161
##able
##ctor
330
399
315
dll
rights
ltd
idc
jul
3kg
1927
142
ma
surface
##76
##ã‚¯
ï½žï½žï½ž
304
mall
eps
146
green
##59
map
space
donald
v2
sodu
##light
1931
148
1700
ã¾ã¦
310
reserved
htm
##han
##57
2d
178
mod
##ise
##tions
152
ti
##shi
doc
1933
icp
055
wang
##ram
shopping
aug
##pi
##well
now
wam
b2
ã‹ã‚‰ãŠ
##hu
236
1928
##gb
266
f2
##93
153
mix
##ef
##uan
bwl
##plus
##res
core
##ess
tea
5â„ƒ
hktvmall
nhk
##ate
list
##ese
301
feb
4m
inn
ã¦ã®
nov
159
12345
daniel
##ci
pass
##bet
##nk
coffee
202
ssl
airbnb
##ute
fbi
woshipm
skype
ea
cg
sp
##fc
##www
yes
edge
alt
007
##94
fpga
##ght
##gs
iso9001
ã•ã„
##ile
##wood
##uo
image
lin
icon
american
##em
1932
set
says
##king
##tive
blogger
##74
ãªã¨
256
147
##ox
##zy
##red
##ium
##lf
nokia
claire
##ãƒª
##ding
november
lohas
##500
##tic
##ãƒž
##cs
##ã‚ã‚‹
##che
##ire
##gy
##ult
db
january
win
##ã‚«
166
road
ptt
##ã¾
##ã¤
198
##fa
##mer
anna
pchome
ã¯ã„
udn
ef
420
##time
##tte
2030
##ã‚¢
g20
white
ã‹ã‹ã‚Šã¾ã™
1929
308
garden
eleven
di
##ãŠã‚Šã¾ã™
chen
309b
777
172
young
cosplay
ã¡ã¦ãªã„
4500
bat
##123
##tra
##ã¦ã¯
kindle
npc
steve
etc
##ern
##ï½œ
call
xperia
ces
travel
sk
s7
##ous
1934
##int
ã¿ã„ãŸãŸã‘ã¾ã™
183
edu
file
cho
qr
##car
##our
186
##ant
##ï½„
eric
1914
rends
##jo
##ã™ã‚‹
mastercard
##2000
kb
##min
290
##ino
vista
##ris
##ud
jack
2400
##set
169
pos
1912
##her
##ou
taipei
ã—ã
205
beta
##ã¾ã›ã‚“ã‹
232
##fi
express
255
body
##ill
aphojoy
user
december
meiki
##ick
tweet
richard
##av
##á†«
iphone6
##dd
ã¡ã¦ã™ã‹
views
##mark
321
pd
##ï¼ï¼
times
##â–²
level
##ash
10g
point
5l
##ome
208
koreanmall
##ak
george
q2
206
wma
tcp
##200
ã‚¹ã‚¿ãƒƒãƒ•
full
mlb
##lle
##watch
tm
run
179
911
smith
business
##und
1919
color
##tal
222
171
##less
moon
4399
##rl
update
pcb
shop
499
157
little
ãªã—
end
##mhz
van
dsp
easy
660
##house
##key
history
##ï½
oh
##001
##hy
##web
oem
let
was
##2009
##gg
review
##wan
182
##Â°c
203
uc
title
##val
united
233
2021
##ons
doi
trivago
overdope
sbs
##ance
##ã¡
grand
special
573032185
imf
216
wx17house
##so
##ãƒ¼ãƒ 
audi
##he
london
william
##rp
##ake
science
beach
cfa
amp
ps4
880
##800
##link
##hp
crm
ferragamo
bell
make
##eng
195
under
zh
photos
2300
##style
##ãƒ³ãƒˆ
via
176
da
##gi
company
i7
##ray
thomas
370
ufo
i5
##max
plc
ben
back
research
8g
173
mike
##pc
##ãƒƒãƒ•
september
189
##ace
vps
february
167
pantos
wp
lisa
1921
â˜…â˜…
jquery
night
long
offer
##berg
##news
1911
##ã„ã¦
ray
fks
wto
ã›ã¾ã™
over
164
340
##all
##rus
1924
##888
##works
blogtitle
loftpermalink
##â†’
187
martin
test
ling
km
##ã‚
15000
fda
v3
##ja
##ãƒ­
ï½—edding
ã‹ã‚ã‚‹
outlet
family
##ea
ã‚’ã“
##top
story
##ness
salvatore
##lu
204
swift
215
room
ã—ã¦ã„ã‚‹
oracle
##ul
1925
sam
b2c
week
pi
rock
##ã®ã¯
##ï½
##ã‘ã¨
##ean
##300
##gle
cctv
after
chinese
##back
powered
x2
##tan
1918
##nes
##ã‚¤ãƒ³
canon
only
181
##zi
##las
say
##oe
184
##sd
221
##bot
##world
##zo
sky
made
top100
just
1926
pmi
802
234
gap
##vr
177
les
174
â–²topoct
ball
vogue
vi
ing
ofweek
cos
##list
##ort
â–²topmay
##ãªã‚‰
##lon
ã¨ã—ã¦
last
##tc
##of
##bus
##gen
real
eva
##ã‚³
a3
nas
##lie
##ria
##coin
##bt
â–²topapr
his
212
cat
nata
vive
health
â‹¯â‹¯
drive
sir
â–²topmar
du
cup
##ã‚«ãƒ¼
##ook
##ã‚ˆã†
##sy
alex
msg
tour
ã—ã¾ã—ãŸ
3ce
##word
193
ebooks
r8
block
318
##ã‚ˆã‚Š
2200
nice
pvp
207
months
1905
rewards
##ther
1917
0800
##xi
##ãƒ
##sc
micro
850
gg
blogfp
op
1922
daily
m1
264
true
##bb
ml
##tar
##ã®ãŠ
##ky
anthony
196
253
##yo
state
218
##ara
##aa
##rc
##tz
##ston
ã‚ˆã‚Š
gear
##eo
##ade
ge
see
1923
##win
##ura
ss
heart
##den
##ita
down
##sm
el
png
2100
610
rakuten
whatsapp
bay
dream
add
##use
680
311
pad
gucci
mpv
##ode
##fo
island
â–²topjun
##â–¼
223
jason
214
chicago
##â¤
ã—ã®
##hone
io
##ã‚Œã‚‹
##ã“ã¨ã‹
sogo
be2
##ology
990
cloud
vcd
##con
2ï½ž3
##ford
##joy
##kb
##ã“ã•ã„ã¾ã™
##rade
but
##ach
docker
##ful
rfid
ul
##ase
hit
ford
##star
580
##â—‹
ï¼‘ï¼‘
a2
sdk
reading
edited
##are
cmos
##mc
238
siri
light
##ella
##ãŸã‚
bloomberg
##read
pizza
##ison
jimmy
##vm
college
node
journal
ba
18k
##play
245
##cer
ï¼’ï¼
magic
##yu
191
jump
288
tt
##ings
asr
##lia
3200
step5
network
##cd
mc
ã„ã—ã¾ã™
1234
pixstyleme
273
##600
2800
money
â˜…â˜…â˜…â˜…â˜…
1280
ï¼‘ï¼’
430
bl
ã¿ã®
act
##tus
tokyo
##rial
##life
emba
##ae
saas
tcs
##rk
##wang
summer
##sp
ko
##ving
390
premium
##ãã®
netflix
##ãƒ’
uk
mt
##lton
right
frank
two
209
ãˆã‚‹
##ple
##cal
021
##ã‚“ãª
##sen
##ville
hold
nexus
dd
##ius
ã¦ãŠ
##mah
##ãªã
tila
zero
820
ce
##tin
resort
##ws
charles
old
p10
5d
report
##360
##ru
##ã«ã¯
bus
vans
lt
##est
pv
##ãƒ¬
links
rebecca
##ãƒ„
##dm
azure
##365
ããª
limited
bit
4gb
##mon
1910
moto
##eam
213
1913
var
eos
ãªã¨ã®
226
blogspot
ã•ã‚ŒãŸ
699
e3
dos
dm
fc
##ments
##ik
##kw
boy
##bin
##ata
960
er
##ã›
219
##vin
##tu
##ula
194
##âˆ¥
station
##ã‚
##ature
835
files
zara
hdr
top10
nature
950
magazine
s6
marriott
##ã‚·
avira
case
##ã£ã¨
tab
##ran
tony
##home
oculus
im
##ral
jean
saint
cry
307
rosie
##force
##ini
ice
##bert
ã®ã‚ã‚‹
##nder
##mber
pet
2600
##â—†
plurk
â–²topdec
##sis
00kg
â–²topnov
720
##ence
tim
##Ï‰
##nc
##ã¦ã‚‚
##name
log
ips
great
ikea
malaysia
unix
##ã‚¤ãƒˆ
3600
##ncy
##nie
12000
akb48
##ye
##oid
404
##chi
##ã„ãŸ
oa
xuehai
##1000
##orm
##rf
275
ã•ã‚“
##ware
##ãƒªãƒ¼
980
ho
##pro
text
##era
560
bob
227
##ub
##2008
8891
scp
avi
##zen
2022
mi
wu
museum
qvod
apache
lake
jcb
â–²topaug
â˜…â˜…â˜…
ni
##hr
hill
302
ne
weibo
490
ruby
##ãƒ¼ã‚·
##ãƒ¶
##row
4d
â–²topjul
iv
##ish
github
306
mate
312
##ã‚¹ãƒˆ
##lot
##ane
andrew
ã®ãƒã‚¤ãƒˆ
##tina
t1
rf
ed2k
##vel
##900
way
final
ã‚Šã®
ns
5a
705
197
##ãƒ¡
sweet
bytes
##ene
â–²topjan
231
##cker
##2007
##px
100g
topapp
229
helpapp
rs
low
14k
g4g
care
630
ldquo
ã‚ã‚Š
##fork
leave
rm
edition
##gan
##zon
##qq
â–²topsep
##google
##ism
gold
224
explorer
##zer
toyota
category
select
visual
##labels
restaurant
##md
posts
s1
##ico
ã‚‚ã£ã¨
angelababy
123456
217
sports
s3
mbc
1915
ã—ã¦ããŸã•ã„
shell
x86
candy
##new
kbs
face
xl
470
##here
4a
swissinfo
v8
â–²topfeb
dram
##ual
##vice
3a
##wer
sport
q1
ios10
public
int
card
##ï½ƒ
ep
au
rt
##ã‚ŒãŸ
1080
bill
##mll
kim
ï¼“ï¼
460
wan
##uk
##ãƒŸ
x3
298
0t
scott
##ming
239
e5
##3d
h7n9
worldcat
brown
##ã‚ã‚Šã¾ã™
##vo
##led
##580
##ax
249
410
##ert
paris
##ï½ž6
polo
925
##lr
599
##ãƒŠ
capital
##hing
bank
cv
1g
##chat
##ï½“
##ãŸã„
adc
##ule
2m
##ï½…
digital
hotmail
268
##pad
870
bbq
quot
##ring
before
wali
##ã¾ã¦
mcu
2k
2b
ã¨ã„ã†
costco
316
north
333
switch
##city
##ï½
philips
##mann
management
panasonic
##cl
##vd
##ping
##rge
alice
##lk
##ã¾ã—ã‚‡ã†
css3
##ney
vision
alpha
##ular
##400
##tter
lz
ã«ãŠ
##ã‚ã‚Šã¾ã›ã‚“
mode
gre
1916
pci
##tm
237
1ï½ž2
##yan
##ã
ã«ã¤ã„ã¦
##let
##ã‚­
work
war
coach
ah
mary
##á…µ
huang
##pt
a8
pt
follow
##berry
1895
##ew
a5
ghost
##ã‚·ãƒ§ãƒ³
##wn
##og
south
##code
girls
##rid
action
villa
git
r11
table
games
##cket
error
##anonymoussaid
##ag
here
##ame
##gc
qa
##â– 
##lis
gmp
##gin
vmalife
##cher
yu
wedding
##tis
demo
dragon
530
soho
social
bye
##rant
river
orz
acer
325
##â†‘
##ãƒ¼ã‚¹
##ats
261
del
##ven
440
ups
##ã‚ˆã†ã«
##ã‚¿ãƒ¼
305
value
macd
yougou
##dn
661
##ano
ll
##urt
##rent
continue
script
##wen
##ect
paper
263
319
shift
##chel
##ãƒ•ãƒˆ
##cat
258
x5
fox
243
##ã•ã‚“
car
aaa
##blog
loading
##yn
##tp
kuso
799
si
sns
ã‚¤ã‚«ã›ã‚‹ãƒ†ãƒ³ãƒž
ãƒ’ãƒ³ã‚¯ãƒ†ãƒ³ãƒž3
rmb
vdc
forest
central
prime
help
ultra
##rmb
##ã‚ˆã†ãª
241
square
688
##ã—ã„
ã®ãªã„ãƒ•ãƒ­ã‚¯ã«
##field
##reen
##ors
##ju
c1
start
510
##air
##map
cdn
##wo
cba
stephen
m8
100km
##get
opera
##base
##ood
vsa
comâ„¢
##aw
##ail
251
ãªã®ã¦
count
t2
##á…¡
##een
2700
hop
##gp
vsc
tree
##eg
##ose
816
285
##ories
##shop
alphago
v4
1909
simon
##á†¼
fluke62max
zip
ã‚¹ãƒ›ãƒ³ã‚µãƒ¼
##sta
louis
cr
bas
##ï½ž10
bc
##yer
hadoop
##ube
##wi
1906
0755
hola
##low
place
centre
5v
d3
##fer
252
##750
##media
281
540
0l
exchange
262
series
##ãƒãƒ¼
##san
eb
##bank
##ï½‹
q3
##nge
##mail
take
##lp
259
1888
client
east
cache
event
vincent
##ãƒ¼ãƒ«ã‚’
ãã‚’
##nse
sui
855
adchoice
##Ð¸
##stry
##ãªãŸã®
246
##zone
ga
apps
sea
##ab
248
cisco
##ã‚¿
##rner
kymco
##care
dha
##pu
##yi
minkoff
royal
p1
ã¸ã®
annie
269
collection
kpi
playstation
257
ã«ãªã‚Šã¾ã™
866
bh
##bar
queen
505
radio
1904
andy
armani
##xy
manager
iherb
##ery
##share
spring
raid
johnson
1908
##ob
volvo
hall
##ball
v6
our
taylor
##hk
bi
242
##cp
kate
bo
water
technology
##rie
ã‚µã‚¤ãƒˆã¯
277
##ona
##sl
hpv
303
gtx
hip
rdquo
jayz
stone
##lex
##rum
namespace
##ã‚„ã‚Š
620
##ale
##atic
des
##erson
##ql
##ves
##type
enter
##ã“ã®
##ã¦ãã¾ã™
d2
##168
##mix
##bian
ã¨ã®
a9
jj
ky
##lc
access
movie
##hc
ãƒªã‚¹ãƒˆã«
tower
##ration
##mit
ã¾ã™
##nch
ua
tel
prefix
##o2
1907
##point
1901
ott
ï½ž10
##http
##ury
baidu
##ink
member
##logy
bigbang
nownews
##js
##shot
##tb
##ã“ã¨
247
eba
##tics
##lus
ã‘ã‚‹
v5
spark
##ama
there
##ions
god
##lls
##down
hiv
##ress
burberry
day2
##kv
â—†â—†
jeff
related
film
edit
joseph
283
##ark
cx
32gb
order
g9
30000
##ans
##tty
s5
##bee
ã‹ã‚ã‚Šã¾ã™
thread
xr
buy
sh
005
land
spotify
mx
##ari
276
##verse
Ã—email
sf
why
##ã“ã¨ã¦
244
7headlines
nego
sunny
dom
exo
401
666
positioning
fit
rgb
##tton
278
kiss
alexa
adam
lp
ã¿ãƒªã‚¹ãƒˆã‚’
##ï½‡
mp
##ties
##llow
amy
##du
np
002
institute
271
##rth
##lar
2345
590
##des
sidebar
ï¼‘ï¼•
imax
site
##cky
##kit
##ime
##009
season
323
##fun
##ãƒ³ã‚¿ãƒ¼
##ã²
gogoro
a7
pu
lily
fire
twd600
##ãƒƒã‚»ãƒ¼ã‚·ã‚’
ã„ã¦
##vis
30ml
##cture
##ã‚’ãŠ
information
##ã‚ª
close
friday
##ãã‚Œã‚‹
yi
nick
ã¦ã™ã‹
##tta
##tel
6500
##lock
cbd
economy
254
ã‹ãŠ
267
tinker
double
375
8gb
voice
##app
oops
channel
today
985
##right
raw
xyz
##ï¼‹
jim
edm
##cent
7500
supreme
814
ds
##its
##asia
dropbox
##ã¦ã™ã‹
##tti
books
272
100ml
##tle
##ller
##ken
##more
##boy
sex
309
##dom
t3
##ider
##ãªã‚Šã¾ã™
##unch
1903
810
feel
5500
##ã‹ã£ãŸ
##put
ã«ã‚ˆã‚Š
s2
mo
##gh
men
ka
amoled
div
##tr
##n1
port
howard
##tags
ken
dnf
##nus
adsense
##Ð°
ide
##ã¸
buff
thunder
##town
##ique
has
##body
auto
pin
##erry
tee
ã¦ã—ãŸ
295
number
##the
##013
object
psp
cool
udnbkk
16gb
##mic
miui
##tro
most
r2
##alk
##nity
1880
Â±0
##ã„ã¾ã—ãŸ
428
s4
law
version
##oa
n1
sgs
docomo
##tf
##ack
henry
fc2
##ded
##sco
##014
##rite
286
0mm
linkedin
##ada
##now
wii
##ndy
ucbug
##â—Ž
sputniknews
legalminer
##ika
##xp
2gb
##bu
q10
oo
b6
come
##rman
cheese
ming
maker
##gm
nikon
##fig
ppi
kelly
##ã‚Šã¾ã™
jchere
ã¦ãã¾ã™
ted
md
003
fgo
tech
##tto
dan
soc
##gl
##len
hair
earth
640
521
img
##pper
##a1
##ã¦ãã‚‹
##ãƒ­ã‚¯
acca
##ition
##ference
suite
##ig
outlook
##mond
##cation
398
##pr
279
101vip
358
##999
282
64gb
3800
345
airport
##over
284
##ãŠã‚Š
jones
##ith
lab
##su
##ã„ã‚‹ã®ã¦
co2
town
piece
##llo
no1
vmware
24h
##qi
focus
reader
##admin
##ora
tb
false
##log
1898
know
lan
838
##ces
f4
##ume
motel
stop
##oper
na
flickr
netcomponents
##af
##â”€
pose
williams
local
##ound
##cg
##site
##iko
ã„ãŠ
274
5m
gsm
con
##ath
1902
friends
##hip
cell
317
##rey
780
cream
##cks
012
##dp
facebooktwitterpinterestgoogle
sso
324
shtml
song
swiss
##mw
##ã‚­ãƒ³ã‚¯
lumia
xdd
string
tiffany
522
marc
ã‚‰ã‚ŒãŸ
insee
russell
sc
dell
##ations
ï½ï½‹
camera
289
##vs
##flow
##late
classic
287
##nter
stay
g1
mtv
512
##ever
##lab
##nger
qe
sata
ryan
d1
50ml
cms
##cing
su
292
3300
editor
296
##nap
security
sunday
association
##ens
##700
##bra
acg
##ã‹ã‚Š
sofascore
ã¨ã¯
mkv
##ign
jonathan
gary
build
labels
##oto
tesla
moba
qi
gohappy
general
ajax
1024
##ã‹ã‚‹
ã‚µã‚¤ãƒˆ
society
##test
##urs
wps
fedora
##ich
mozilla
328
##480
##dr
usa
urn
##lina
##ï½’
grace
##die
##try
##ader
1250
##ãªã‚Š
elle
570
##chen
##á†¯
price
##ten
uhz
##ough
eq
##hen
states
push
session
balance
wow
506
##cus
##py
when
##ward
##ep
34e
wong
library
prada
##ã‚µã‚¤ãƒˆ
##cle
running
##ree
313
ck
date
q4
##ctive
##ool
##ï¼ž
mk
##ira
##163
388
die
secret
rq
dota
buffet
ã¯ï¼‘ãƒ¶
e6
##ez
pan
368
ha
##card
##cha
2a
##ã•
alan
day3
eye
f3
##end
france
keep
adi
rna
tvbs
##ala
solo
nova
##ãˆ
##tail
##ã‚‡ã†
support
##ries
##ãªã‚‹
##ved
base
copy
iis
fps
##ways
hero
hgih
profile
fish
mu
ssh
entertainment
chang
##wd
click
cake
##ond
pre
##tom
kic
pixel
##ov
##fl
product
6a
##pd
dear
##gate
es
yumi
audio
##Â²
##sky
echo
bin
where
##ture
329
##ape
find
sap
isis
##ãªã¨
nand
##101
##load
##ream
band
a6
525
never
##post
festival
50cm
##we
555
guide
314
zenfone
##ike
335
gd
forum
jessica
strong
alexander
##ould
software
allen
##ious
program
360Â°
else
lohasthree
##gar
ã™ã‚‹ã“ã¨ã‹ã¦ãã¾ã™
please
##ã‚Œã¾ã™
rc
##ggle
##ric
bim
50000
##own
eclipse
355
brian
3ds
##side
061
361
##other
##ã‘ã‚‹
##tech
##ator
485
engine
##ged
##ï½”
plaza
##fit
cia
ngo
westbrook
shi
tbs
50mm
##ã¿ã¾ã›ã‚“ã‹
sci
291
reuters
##ily
contextlink
##hn
af
##cil
bridge
very
##cel
1890
cambridge
##ize
15g
##aid
##data
790
frm
##head
award
butler
##sun
meta
##mar
america
ps3
puma
pmid
##ã™ã‹
lc
670
kitchen
##lic
ã‚ªãƒ¼ãƒ•ãƒ³5
ããªã—ã‚½ãƒ•ãƒˆã‚µãƒ¼ãƒ’ã‚¹
ãã—ã¦
day1
future
â˜…â˜…â˜…â˜…
##text
##page
##rris
pm1
##ket
fans
##ã£ã¦ã„ã¾ã™
1001
christian
bot
kids
trackback
##hai
c3
display
##hl
n2
1896
idea
ã•ã‚“ã‚‚
##sent
airmail
##ug
##men
pwm
ã‘ã¾ã™
028
##lution
369
852
awards
schemas
354
asics
wikipedia
font
##tional
##vy
c2
293
##ã‚Œã¦ã„ã‚‹
##dget
##ein
ã£ã¦ã„ã‚‹
contact
pepper
ã‚¹ã‚­ãƒ«
339
##ï½ž5
294
##uel
##ument
730
##hang
ã¿ã¦ã™
q5
##sue
rain
##ndi
wei
swatch
##cept
ã‚ã›
331
popular
##ste
##tag
p2
501
trc
1899
##west
##live
justin
honda
ping
messenger
##rap
v9
543
##ã¨ã¯
unity
appqq
ã¯ã™ã¸ã¦
025
leo
##tone
##ãƒ†
##ass
uniqlo
##010
502
her
jane
memory
moneydj
##tical
human
12306
ã—ã¦ã„ã‚‹ã¨
##m2
coc
miacare
##mn
tmt
##core
vim
kk
##may
fan
target
use
too
338
435
2050
867
737
fast
##2c
services
##ope
omega
energy
##ã‚
pinkoi
1a
##ãªã‹ã‚‰
##rain
jackson
##ement
##ã‚·ãƒ£ãƒ³ãƒ«ã®
374
366
ãã‚“ãª
p9
rd
##á†¨
1111
##tier
##vic
zone
##â”‚
385
690
dl
isofix
cpa
m4
322
kimi
ã‚ã¦
davis
##lay
lulu
##uck
050
weeks
qs
##hop
920
##ï½Ž
ae
##ear
ï½ž5
eia
405
##fly
korea
jpeg
boost
##ship
small
##ãƒªã‚¢
1860
eur
297
425
valley
##iel
simple
##ude
rn
k2
##ena
ã•ã‚Œã¾ã™
non
patrick
ã—ã¦ã„ã‚‹ã‹ã‚‰
##ãƒŠãƒ¼
feed
5757
30g
process
well
qqmei
##thing
they
aws
lu
pink
##ters
##kin
ã¾ãŸã¯
board
##vertisement
wine
##ien
unicode
##dge
r1
359
##tant
ã„ã‚’
##twitter
##3c
cool1
ã•ã‚Œã‚‹
##ã‚Œã¦
##ï½Œ
isp
##012
standard
45ãŽ¡2
402
##150
matt
##fu
326
##iner
googlemsn
pixnetfacebookyahoo
##ãƒ©ãƒ³
x7
886
##uce
ãƒ¡ãƒ¼ã‚«ãƒ¼
sao
##ev
##ãã¾ã—ãŸ
##file
9678
403
xddd
shirt
6l
##rio
##hat
3mm
givenchy
ya
bang
##lio
monday
crystal
ãƒ­ã‚¯ã‚¤ãƒ³
##abc
336
head
890
ubuntuforumwikilinuxpastechat
##vc
##ï½ž20
##rity
cnc
7866
ipv6
null
1897
##ost
yang
imsean
tiger
##fet
##ãƒ³ã‚¹
352
##ï¼
dji
327
ji
maria
##come
##ã‚“ã¦
foundation
3100
##beth
##ãªã£ãŸ
1m
601
active
##aft
##don
3p
sr
349
emma
##khz
living
415
353
1889
341
709
457
sas
x6
##face
pptv
x4
##mate
han
sophie
##jing
337
fifa
##mand
other
sale
inwedding
##gn
ã¦ãã¡ã‚ƒã„ã¾ã™
##mmy
##pmlast
bad
nana
nbc
ã—ã¦ã¿ã¦ããŸã•ã„ã­
ãªã¨ã¯ãŠ
##wu
##ã‹ã‚ã‚Šã¾ã™
##ã‚
note7
single
##340
ã›ã‹ã‚‰ã“
ã—ã¦ããŸã•ã„â™ªã“ã®
ã—ã«ã¯ã¨ã‚“ã¨ã‚“ãƒ¯ãƒ¼ã‚¯ã‚±ãƒ¼ãƒˆã‚’
ã™ã‚‹ã¨ã‚ãªãŸã«ã‚‚ã£ã¨ãƒžãƒƒãƒã—ãŸ
ãªã‚‰ãƒ¯ãƒ¼ã‚¯ã‚±ãƒ¼ãƒˆã¸
ã‚‚ã¿ã¤ã‹ã£ã¡ã‚ƒã†ã‹ã‚‚
ãƒ¯ãƒ¼ã‚¯ã‚±ãƒ¼ãƒˆã®
##bel
window
##dio
##ht
union
age
382
ï¼‘ï¼”
##ivity
##ï½™
ã‚³ãƒ¡ãƒ³ãƒˆ
domain
neo
##isa
##lter
5k
f5
steven
##cts
powerpoint
tft
self
g2
ft
##ãƒ†ãƒ«
zol
##act
mwc
381
343
ã‚‚ã†
nbapop
408
ã¦ã‚ã‚‹
eds
ace
##room
previous
author
tomtom
il
##ets
hu
financial
â˜†â˜†â˜†
ã£ã¦ã„ã¾ã™
bp
5t
chi
1gb
##hg
fairmont
cross
008
gay
h2
function
##ã‘ã¦
356
also
1b
625
##ãƒ¼ã‚¿
##raph
1894
3ï½ž5
##ils
i3
334
avenue
##host
ã«ã‚ˆã‚‹
##bon
##tsu
message
navigation
50g
fintech
h6
##ã“ã¨ã‚’
8cm
##ject
##vas
##firm
credit
##wf
xxxx
form
##nor
##space
huawei
plan
json
sbl
##dc
machine
921
392
wish
##120
##sol
windows7
edward
##ãŸã‚ã«
development
washington
##nsis
lo
818
##sio
##ym
##bor
planet
##ï½ž8
##wt
ieee
gpa
##ã‚ã¦
camp
ann
gm
##tw
##oka
connect
##rss
##work
##atus
wall
chicken
soul
2mm
##times
fa
##ather
##cord
009
##eep
hitachi
gui
harry
##pan
e1
disney
##press
##ãƒ¼ã‚·ãƒ§ãƒ³
wind
386
frigidaire
##tl
liu
hsu
332
basic
von
ev
ã„ãŸ
ã¦ãã‚‹
ã‚¹ãƒ›ãƒ³ã‚µãƒ¼ã‚µã‚¤ãƒˆ
learning
##ull
expedia
archives
change
##wei
santa
cut
ins
6gb
turbo
brand
cf1
508
004
return
747
##rip
h1
##nis
##ã‚’ã“
128gb
##ã«ãŠ
3t
application
ã—ã¦ãŠã‚Š
emc
rx
##oon
384
quick
412
15058
wilson
wing
chapter
##bug
beyond
##cms
##dar
##oh
zoom
e2
trip
sb
##nba
rcep
342
aspx
ci
080
gc
gnu
ã‚ã‚‹
##count
advanced
dance
dv
##url
##ging
367
8591
am09
shadow
battle
346
##ï½‰
##cia
##ã¨ã„ã†
emily
##ã®ã¦ã™
##tation
host
ff
techorz
sars
##mini
##mporary
##ering
nc
4200
798
##next
cma
##mbps
##gas
##ift
##dot
##ã‚£
455
##ï½ž17
amana
##ã‚Šã®
426
##ros
ir
00ãŽ¡1
##eet
##ible
##â†“
710
Ë‹â–½ËŠ
##aka
dcs
iq
##ï½–
l1
##lor
maggie
##011
##iu
588
##ï½ž1
830
##gt
1tb
articles
create
##burg
##iki
database
fantasy
##rex
##cam
dlc
dean
##you
hard
path
gaming
victoria
maps
cb
##lee
##itor
overchicstoretvhome
systems
##xt
416
p3
sarah
760
##nan
407
486
x9
install
second
626
##ann
##ph
##rcle
##nic
860
##nar
ec
##ã¨ã†
768
metro
chocolate
##rian
ï½ž4
##table
##ã—ã¦ã„ã¾ã™
skin
##sn
395
mountain
##0mm
inparadise
6m
7x24
ib
4800
##jia
eeworld
creative
g5
g3
357
parker
ecfa
village
ã‹ã‚‰ã®
18000
sylvia
ã‚µãƒ¼ãƒ’ã‚¹
hbl
##ques
##onsored
##x2
##ãã¾ã™
##v4
##tein
ie6
383
##stack
389
ver
##ads
##baby
sound
bbe
##110
##lone
##uid
ads
022
gundam
351
thinkpad
006
scrum
match
##ave
mems
##470
##oy
##ãªã‚Šã¾ã—ãŸ
##talk
glass
lamigo
span
##eme
job
##a5
jay
wade
kde
498
##lace
ocean
tvg
##covery
##r3
##ners
##rea
junior
think
##aine
cover
##ision
##sia
â†“â†“
##bow
msi
413
458
406
##love
711
801
soft
z2
##pl
456
1840
mobil
mind
##uy
427
nginx
##oi
ã‚ãŸ
##rr
6221
##mple
##sson
##ãƒ¼ã‚·ã¦ã™
371
##nts
91tv
comhd
crv3000
##uard
1868
397
deep
lost
field
gallery
##bia
rate
spf
redis
traction
930
icloud
011
ãªã‚‰
fe
jose
372
##tory
into
sohu
fx
899
379
kicstart2
##hia
ã™ã
##ï½ž3
##sit
ra
ï¼’ï¼”
##walk
##xure
500g
##pact
pacific
xa
natural
carlo
##250
##walker
1850
##can
cto
gigi
516
##ã‚µãƒ¼
pen
##hoo
ob
matlab
##ï½‚
##yy
13913459
##iti
mango
##bbs
sense
c5
oxford
##ãƒ‹ã‚¢
walker
jennifer
##ola
course
##bre
701
##pus
##rder
lucky
075
##ã
ivy
ãªãŠ
##nia
sotheby
side
##ugh
joy
##orage
##ush
##bat
##dt
364
r9
##2d
##gio
511
country
wear
##lax
##ï½ž7
##moon
393
seven
study
411
348
lonzo
8k
##ã‚§
evolution
##ã‚¤ãƒ•
##kk
gs
kd
##ãƒ¬ã‚¹
arduino
344
b12
##lux
arpg
##rdon
cook
##x5
dark
five
##als
##ida
ã¨ã¦ã‚‚
sign
362
##ã¡ã®
something
20mm
##nda
387
##posted
fresh
tf
1870
422
cam
##mine
##skip
##form
##ssion
education
394
##tee
dyson
stage
##jie
want
##night
epson
pack
ã‚ã‚Šã¾ã™
##ppy
ãƒ†ãƒªãƒ˜ãƒ«
##â–ˆ
wd
##eh
##rence
left
##lvin
golden
mhz
discovery
##trix
##n2
loft
##uch
##dra
##sse
speed
ï½ž1
1mdb
sorry
welcome
##urn
wave
gaga
##lmer
teddy
##160
ãƒˆãƒ©ãƒƒã‚¯ãƒãƒƒã‚¯
ã›ã‚ˆ
611
##f2016
378
rp
##sha
rar
##ã‚ãªãŸã«
##ããŸ
840
holiday
##ãƒ¥ãƒ¼
373
074
##vg
##nos
##rail
gartner
gi
6p
##dium
kit
488
b3
eco
##ã‚ã†
20g
sean
##stone
autocad
nu
##np
f16
write
029
m5
##ias
images
atp
##dk
fsm
504
1350
ve
52kb
##xxx
##ã®ã«
##cake
414
unit
lim
ru
1v
##ification
published
angela
16g
analytics
ak
##ï½‘
##nel
gmt
##icon
again
##â‚‚
##bby
ios11
445
ã‹ã“ã•ã„ã¾ã™
waze
ã„ã¦ã™
##ãƒ
9985
##ust
##ãƒ†ã‚£ãƒ¼
framework
##007
iptv
delete
52sykb
cl
wwdc
027
30cm
##fw
##ã¦ã®
1389
##xon
brandt
##ses
##dragon
tc
vetements
anne
monte
modern
official
##ã¸ã¦
##ere
##nne
##oud
ã‚‚ã¡ã‚ã‚“
ï¼•ï¼
etnews
##a2
##graphy
421
863
##ã¡ã‚ƒã‚“
444
##rtex
##ã¦ãŠ
l2
##gma
mount
ccd
ãŸã¨
archive
morning
tan
ddos
e7
##ãƒ›
day4
##ã‚¦
gis
453
its
495
factory
bruce
pg
##ito
ã£ã¦ããŸã•ã„
guest
cdma
##lling
536
n3
ã—ã‹ã—
3ï½ž4
mega
eyes
ro
ï¼‘ï¼“
women
dac
church
##jun
singapore
##facebook
6991
starbucks
##tos
##stin
##shine
zen
##mu
tina
20â„ƒ
1893
##ãŸã‘ã¦
503
465
request
##gence
qt
##ã£
1886
347
363
q7
##zzi
diary
##tore
409
##ead
468
cst
##osa
canada
agent
va
##jiang
##ã¡ã¯
##ãƒ¼ã‚¯
##lam
sg
##nix
##sday
##ã‚ˆã£ã¦
g6
##master
bing
##zl
charlie
ï¼‘ï¼–
8mm
nb40
##ãƒ¼ãƒ³
thai
##ãƒ«ãƒ•
ln284ct
##itz
##2f
bonnie
##food
##lent
originals
##stro
##lts
418
âˆŸâˆ£
##bscribe
children
ntd
yesstyle
##ã‹ã‚‚
hmv
##tment
d5
2cm
arts
sms
##pn
##Ñ
##ã„ã„
topios9
539
lifestyle
virtual
##ague
xz
##deo
muji
024
unt
##nnis
##á…©
faq1
1884
396
##ette
fly
64ãŽ¡
ã¯ã—ã‚ã¾ã—ã¦
441
curry
##pop
ã®ã“
release
##â†
##â—†â—†
##cast
073
ã‚ã‚Šãª
500ml
##ews
5c
##stle
ios7
##ima
787
dog
lenovo
##r4
roger
013
cbs
vornado
100m
417
##desk
##ã‚¯ok
##ald
1867
9595
2900
##van
oil
##ï½˜
some
break
common
##jy
##lines
g7
twice
419
ella
nano
belle
ã«ã“
##mes
##self
##note
jb
##ã“ã¨ã‹ã¦ãã¾ã™
benz
##ã¨ã®
##ova
451
save
##wing
##ã¾ã™ã®ã¦
kai
ã‚Šã¯
##hua
##rect
rainer
##unge
448
##0m
adsl
##ã‹ãª
guestname
##uma
##kins
##zu
tokichoi
##price
county
##med
##mus
rmk
391
address
vm
ãˆã¦
openload
##group
##hin
##iginal
amg
urban
##oz
jobs
emi
##public
beautiful
##sch
album
##dden
##bell
jerry
works
hostel
miller
##drive
##rmin
##ï¼‘ï¼
376
boot
828
##370
##fx
##cmï½ž
1885
##nome
##ctionary
##oman
##lish
##cr
##hm
433
##how
432
francis
xi
c919
b5
evernote
##uc
vga
##3000
coupe
##urg
##cca
##uality
019
6g
ã‚Œã‚‹
multi
##ã¾ãŸ
##ett
em
hey
##ani
##tax
##rma
inside
than
740
leonnhurt
##jin
ict
ã‚ŒãŸ
bird
notes
200mm
ãã®
##dical
##lli
result
442
iu
ee
438
smap
gopro
##last
yin
pure
998
32g
ã‘ãŸ
5kg
##dan
##rame
mama
##oot
bean
marketing
##hur
2l
bella
sync
xuite
##ground
515
discuz
##getrelax
##ince
##bay
##5s
cj
##ã‚¤ã‚¹
gmat
apt
##pass
jing
##rix
c4
rich
##ã¨ã¦ã‚‚
niusnews
##ello
bag
770
##eting
##mobile
ï¼‘ï¼˜
culture
015
##ã®ã¦ã™ã‹
377
1020
area
##ience
616
details
gp
universal
silver
dit
ã¯ãŠ
private
ddd
u11
kanshu
##ified
fung
##nny
dx
##520
tai
475
023
##fr
##lean
3s
##pin
429
##rin
25000
ly
rick
##bility
usb3
banner
##baru
##gion
metal
dt
vdf
1871
karl
qualcomm
bear
1010
oldid
ian
jo
##tors
population
##ernel
1882
mmorpg
##mv
##bike
603
##Â©
ww
friend
##ager
exhibition
##del
##pods
fpx
structure
##free
##tings
kl
##rley
##copyright
##mma
california
3400
orange
yoga
4l
canmake
honey
##anda
##ã‚³ãƒ¡ãƒ³ãƒˆ
595
nikkie
##ãƒ«ãƒã‚¤ãƒˆ
dhl
publishing
##mall
##gnet
20cm
513
##ã‚¯ã‚»ã‚¹
##â”…
e88
970
##dog
fishbase
##!
##"
###
##$
##%
##&
##'
##(
##)
##*
##+
##,
##-
##.
##/
##:
##;
##<
##=
##>
##?
##@
##[
##\
##]
##^
##_
##{
##|
##}
##~
##Â£
##Â¤
##Â¥
##Â§
##Â«
##Â±
##Â³
##Âµ
##Â·
##Â¹
##Âº
##Â»
##Â¼
##ÃŸ
##Ã¦
##Ã·
##Ã¸
##Ä‘
##Å‹
##É”
##É™
##É¡
##Ê°
##Ë‡
##Ëˆ
##ËŠ
##Ë‹
##Ë
##Ë
##Ë™
##Ëš
##Ë¢
##Î±
##Î²
##Î³
##Î´
##Îµ
##Î·
##Î¸
##Î¹
##Îº
##Î»
##Î¼
##Î½
##Î¿
##Ï€
##Ï
##Ï‚
##Ïƒ
##Ï„
##Ï…
##Ï†
##Ï‡
##Ïˆ
##Ð±
##Ð²
##Ð³
##Ð´
##Ðµ
##Ð¶
##Ð·
##Ðº
##Ð»
##Ð¼
##Ð½
##Ð¾
##Ð¿
##Ñ€
##Ñ
##Ñ‚
##Ñƒ
##Ñ„
##Ñ…
##Ñ†
##Ñ‡
##Ñˆ
##Ñ‹
##ÑŒ
##Ñ–
##Ø§
##Ø¨
##Ø©
##Øª
##Ø¯
##Ø±
##Ø³
##Ø¹
##Ù„
##Ù…
##Ù†
##Ù‡
##Ùˆ
##ÙŠ
##Û©
##à¸
##à¸‡
##à¸™
##à¸¡
##à¸¢
##à¸£
##à¸­
##à¸²
##à¹€
##à¹‘
##à¼‹
##áƒ¦
##á„€
##á„
##á„‚
##á„ƒ
##á„…
##á„†
##á„‡
##á„ˆ
##á„‰
##á„‹
##á„Œ
##á„Ž
##á„
##á„
##á„‘
##á„’
##á…¢
##á…£
##á…¥
##á…¦
##á…§
##á…¨
##á…ª
##á…¬
##á…­
##á…®
##á…¯
##á…²
##á…³
##á…´
##á†·
##á†¸
##á†º
##á†»
##á—œ
##áµƒ
##áµ‰
##áµ
##áµ
##áµ
##áµ’
##áµ˜
##â€–
##â€ž
##â€ 
##â€¢
##â€¥
##â€§
##â€¨
##â€°
##â€²
##â€³
##â€¹
##â€º
##â€»
##â€¿
##â„
##â±
##âº
##â¿
##â‚
##â‚ƒ
##â‚„
##â‚¬
##â„–
##â…°
##â…±
##â…²
##â…³
##â…´
##â†”
##â†—
##â†˜
##â‡’
##âˆ€
##âˆ’
##âˆ•
##âˆ™
##âˆš
##âˆž
##âˆŸ
##âˆ 
##âˆ£
##âˆ©
##âˆ®
##âˆ¶
##âˆ¼
##âˆ½
##â‰ˆ
##â‰’
##â‰¡
##â‰¤
##â‰¥
##â‰¦
##â‰§
##â‰ª
##â‰«
##âŠ™
##â‹…
##â‹ˆ
##â‹¯
##âŒ’
##â‘ 
##â‘¡
##â‘¢
##â‘£
##â‘¤
##â‘¥
##â‘¦
##â‘§
##â‘¨
##â‘©
##â‘´
##â‘µ
##â‘¶
##â‘·
##â‘¸
##â’ˆ
##â’‰
##â’Š
##â’‹
##â“’
##â“”
##â“˜
##â”
##â”ƒ
##â”†
##â”Š
##â”Œ
##â””
##â”œ
##â”£
##â•
##â•‘
##â•š
##â•ž
##â• 
##â•­
##â•®
##â•¯
##â•°
##â•±
##â•³
##â–‚
##â–ƒ
##â–…
##â–‡
##â–‰
##â–‹
##â–Œ
##â–
##â–Ž
##â–¡
##â–ª
##â–«
##â–¬
##â–³
##â–¶
##â–º
##â–½
##â—‡
##â—•
##â— 
##â—¢
##â—¤
##â˜€
##â˜•
##â˜ž
##â˜º
##â˜¼
##â™€
##â™‚
##â™ 
##â™¡
##â™£
##â™¦
##â™«
##â™¬
##âœˆ
##âœ”
##âœ•
##âœ–
##âœ¦
##âœ¨
##âœª
##âœ°
##âœ¿
##â€
##âžœ
##âž¤
##â¦¿
##ã€
##ã€‚
##ã€ƒ
##ã€…
##ã€‡
##ã€ˆ
##ã€‰
##ã€Š
##ã€‹
##ã€Œ
##ã€
##ã€Ž
##ã€
##ã€
##ã€‘
##ã€“
##ã€”
##ã€•
##ã€–
##ã€—
##ã€œ
##ã€
##ã€ž
##ãƒ
##ã‡
##ã¬
##ãµ
##ã»
##ã‚€
##ã‚ƒ
##ã‚…
##ã‚†
##ã‚‡
##ã‚œ
##ã‚
##ã‚¡
##ã‚¥
##ã‚¨
##ã‚©
##ã‚±
##ã‚µ
##ã‚»
##ã‚½
##ãƒƒ
##ãƒ‹
##ãƒŒ
##ãƒ
##ãƒŽ
##ãƒ˜
##ãƒ¢
##ãƒ£
##ãƒ¤
##ãƒ¥
##ãƒ¦
##ãƒ§
##ãƒ¨
##ãƒ¯
##ãƒ²
##ãƒ»
##ãƒ½
##ã„…
##ã„†
##ã„‡
##ã„‰
##ã„‹
##ã„Œ
##ã„
##ã„Ž
##ã„
##ã„’
##ã„š
##ã„›
##ã„ž
##ã„Ÿ
##ã„¢
##ã„¤
##ã„¥
##ã„§
##ã„¨
##ã†
##ãˆ¦
##ãŠ£
##ã—Ž
##ä¸€
##ä¸
##ä¸ƒ
##ä¸‡
##ä¸ˆ
##ä¸‰
##ä¸Š
##ä¸‹
##ä¸
##ä¸Ž
##ä¸
##ä¸‘
##ä¸“
##ä¸”
##ä¸•
##ä¸–
##ä¸˜
##ä¸™
##ä¸š
##ä¸›
##ä¸œ
##ä¸
##ä¸ž
##ä¸Ÿ
##ä¸¡
##ä¸¢
##ä¸¤
##ä¸¥
##ä¸¦
##ä¸§
##ä¸¨
##ä¸ª
##ä¸«
##ä¸­
##ä¸°
##ä¸²
##ä¸´
##ä¸¶
##ä¸¸
##ä¸¹
##ä¸º
##ä¸»
##ä¸¼
##ä¸½
##ä¸¾
##ä¸¿
##ä¹‚
##ä¹ƒ
##ä¹…
##ä¹ˆ
##ä¹‰
##ä¹‹
##ä¹Œ
##ä¹
##ä¹Ž
##ä¹
##ä¹
##ä¹’
##ä¹“
##ä¹”
##ä¹–
##ä¹—
##ä¹˜
##ä¹™
##ä¹œ
##ä¹
##ä¹ž
##ä¹Ÿ
##ä¹ 
##ä¹¡
##ä¹¦
##ä¹©
##ä¹°
##ä¹±
##ä¹³
##ä¹¾
##äº€
##äº‚
##äº†
##äºˆ
##äº‰
##äº‹
##äºŒ
##äºŽ
##äº
##äº‘
##äº’
##äº”
##äº•
##äº˜
##äº™
##äºš
##äº›
##äºœ
##äºž
##äºŸ
##äº¡
##äº¢
##äº¤
##äº¥
##äº¦
##äº§
##äº¨
##äº©
##äº«
##äº¬
##äº­
##äº®
##äº²
##äº³
##äºµ
##äºº
##äº¿
##ä»€
##ä»
##ä»ƒ
##ä»„
##ä»…
##ä»†
##ä»‡
##ä»Š
##ä»‹
##ä»
##ä»Ž
##ä»
##ä»‘
##ä»“
##ä»”
##ä»•
##ä»–
##ä»—
##ä»˜
##ä»™
##ä»
##ä»ž
##ä»Ÿ
##ä»£
##ä»¤
##ä»¥
##ä»¨
##ä»ª
##ä»¬
##ä»®
##ä»°
##ä»²
##ä»¶
##ä»·
##ä»»
##ä»½
##ä»¿
##ä¼
##ä¼‰
##ä¼Š
##ä¼
##ä¼Ž
##ä¼
##ä¼
##ä¼‘
##ä¼•
##ä¼—
##ä¼˜
##ä¼™
##ä¼š
##ä¼
##ä¼ž
##ä¼Ÿ
##ä¼ 
##ä¼¢
##ä¼¤
##ä¼¦
##ä¼ª
##ä¼«
##ä¼¯
##ä¼°
##ä¼´
##ä¼¶
##ä¼¸
##ä¼º
##ä¼¼
##ä¼½
##ä½ƒ
##ä½†
##ä½‡
##ä½ˆ
##ä½
##ä½Ž
##ä½
##ä½
##ä½‘
##ä½“
##ä½”
##ä½•
##ä½—
##ä½˜
##ä½™
##ä½š
##ä½›
##ä½œ
##ä½
##ä½ž
##ä½Ÿ
##ä½ 
##ä½¢
##ä½£
##ä½¤
##ä½¥
##ä½©
##ä½¬
##ä½¯
##ä½°
##ä½³
##ä½µ
##ä½¶
##ä½»
##ä½¼
##ä½¿
##ä¾ƒ
##ä¾„
##ä¾†
##ä¾ˆ
##ä¾‹
##ä¾
##ä¾
##ä¾‘
##ä¾–
##ä¾—
##ä¾›
##ä¾
##ä¾ 
##ä¾¡
##ä¾£
##ä¾¥
##ä¾¦
##ä¾§
##ä¾¨
##ä¾¬
##ä¾®
##ä¾¯
##ä¾µ
##ä¾¶
##ä¾·
##ä¾¿
##ä¿‚
##ä¿ƒ
##ä¿„
##ä¿Š
##ä¿Ž
##ä¿
##ä¿
##ä¿‘
##ä¿—
##ä¿˜
##ä¿š
##ä¿
##ä¿ž
##ä¿Ÿ
##ä¿ 
##ä¿¡
##ä¿¨
##ä¿©
##ä¿ª
##ä¿¬
##ä¿­
##ä¿®
##ä¿¯
##ä¿±
##ä¿³
##ä¿¸
##ä¿º
##ä¿¾
##å€†
##å€‰
##å€‹
##å€Œ
##å€
##å€
##å€‘
##å€’
##å€”
##å€–
##å€˜
##å€™
##å€š
##å€œ
##å€Ÿ
##å€¡
##å€¤
##å€¦
##å€©
##å€ª
##å€«
##å€¬
##å€­
##å€¶
##å€º
##å€¼
##å€¾
##åƒ
##å‡
##åˆ
##å‰
##åŒ
##åŽ
##å
##å•
##åš
##åœ
##å¥
##å´
##åµ
##å¶
##å·
##å»
##å½
##å¿
##å‚€
##å‚…
##å‚
##å‚‘
##å‚˜
##å‚™
##å‚š
##å‚¢
##å‚£
##å‚¥
##å‚¨
##å‚©
##å‚¬
##å‚­
##å‚²
##å‚³
##å‚µ
##å‚·
##å‚»
##å‚¾
##åƒ…
##åƒ
##åƒ
##åƒ‘
##åƒ•
##åƒ–
##åƒš
##åƒ¥
##åƒ§
##åƒ­
##åƒ®
##åƒ±
##åƒµ
##åƒ¹
##åƒ»
##å„€
##å„‚
##å„„
##å„†
##å„‰
##å„‹
##å„’
##å„•
##å„˜
##å„Ÿ
##å„¡
##å„ª
##å„²
##å„·
##å„¼
##å„¿
##å…€
##å…
##å…ƒ
##å…„
##å……
##å…†
##å…‡
##å…ˆ
##å…‰
##å…‹
##å…Œ
##å…
##å…
##å…‘
##å…’
##å…”
##å…–
##å…š
##å…œ
##å…¢
##å…¥
##å…§
##å…¨
##å…©
##å…«
##å…¬
##å…­
##å…®
##å…°
##å…±
##å…²
##å…³
##å…´
##å…µ
##å…¶
##å…·
##å…¸
##å…¹
##å…»
##å…¼
##å…½
##å†€
##å†…
##å††
##å†‡
##å†ˆ
##å†‰
##å†Š
##å†Œ
##å†
##å†
##å†’
##å†•
##å†—
##å†™
##å†›
##å†œ
##å† 
##å†¢
##å†¤
##å†¥
##å†¨
##å†ª
##å†¬
##å†¯
##å†°
##å†²
##å†³
##å†µ
##å†¶
##å†·
##å†»
##å†¼
##å†½
##å†¾
##å‡€
##å‡„
##å‡†
##å‡‡
##å‡ˆ
##å‡‰
##å‡‹
##å‡Œ
##å‡
##å‡
##å‡‘
##å‡›
##å‡œ
##å‡
##å‡ 
##å‡¡
##å‡¤
##å‡¦
##å‡ª
##å‡­
##å‡¯
##å‡°
##å‡±
##å‡³
##å‡¶
##å‡¸
##å‡¹
##å‡º
##å‡»
##å‡½
##å‡¿
##åˆ€
##åˆ
##åˆƒ
##åˆ†
##åˆ‡
##åˆˆ
##åˆŠ
##åˆ
##åˆŽ
##åˆ‘
##åˆ’
##åˆ—
##åˆ˜
##åˆ™
##åˆš
##åˆ›
##åˆ
##åˆ 
##åˆ¤
##åˆ¥
##åˆ¨
##åˆ©
##åˆª
##åˆ«
##åˆ®
##åˆ°
##åˆ¶
##åˆ·
##åˆ¸
##åˆ¹
##åˆº
##åˆ»
##åˆ½
##å‰
##å‰‚
##å‰ƒ
##å‰‡
##å‰‰
##å‰Š
##å‰‹
##å‰Œ
##å‰
##å‰Ž
##å‰
##å‰‘
##å‰”
##å‰–
##å‰›
##å‰œ
##å‰
##å‰£
##å‰¤
##å‰¥
##å‰§
##å‰©
##å‰ª
##å‰¯
##å‰²
##å‰µ
##å‰·
##å‰½
##å‰¿
##åŠƒ
##åŠ‡
##åŠˆ
##åŠ‰
##åŠŠ
##åŠ
##åŠ
##åŠ‘
##åŠ›
##åŠ
##åŠž
##åŠŸ
##åŠ 
##åŠ¡
##åŠ£
##åŠ¨
##åŠ©
##åŠª
##åŠ«
##åŠ­
##åŠ±
##åŠ²
##åŠ³
##åŠ´
##åŠµ
##åŠ¹
##åŠ¾
##åŠ¿
##å‹
##å‹ƒ
##å‹‡
##å‹‰
##å‹‹
##å‹
##å‹’
##å‹•
##å‹–
##å‹˜
##å‹™
##å‹›
##å‹
##å‹ž
##å‹Ÿ
##å‹¢
##å‹¤
##å‹§
##å‹³
##å‹µ
##å‹¸
##å‹º
##å‹»
##å‹¾
##å‹¿
##åŒ€
##åŒ…
##åŒ†
##åŒˆ
##åŒ
##åŒ
##åŒ•
##åŒ–
##åŒ—
##åŒ™
##åŒ
##åŒ 
##åŒ¡
##åŒ£
##åŒª
##åŒ®
##åŒ¯
##åŒ±
##åŒ¹
##åŒº
##åŒ»
##åŒ¾
##åŒ¿
##å€
##å
##åƒ
##å…
##å‡
##åˆ
##å‰
##åŠ
##å
##åŽ
##å
##å‘
##å’
##å“
##å”
##å•
##å–
##å—
##å˜
##åš
##åœ
##åž
##åŸ
##å 
##å¡
##å¢
##å¤
##å¦
##å§
##å«
##å®
##å¯
##å°
##å±
##å³
##å´
##åµ
##å·
##å¸
##å»
##å¿
##åŽ‚
##åŽ„
##åŽ…
##åŽ†
##åŽ‰
##åŽ‹
##åŽŒ
##åŽ•
##åŽ˜
##åŽš
##åŽ
##åŽŸ
##åŽ¢
##åŽ¥
##åŽ¦
##åŽ¨
##åŽ©
##åŽ­
##åŽ®
##åŽ²
##åŽ³
##åŽ»
##åŽ¿
##å
##å‚
##åƒ
##åˆ
##å‰
##åŠ
##å‹
##åŒ
##å
##åŽ
##å‘
##å”
##å–
##å—
##å˜
##å™
##å›
##åŸ
##å 
##å¡
##å¢
##å£
##å¤
##å¥
##å¦
##å¨
##å©
##åª
##å«
##å¬
##å­
##å®
##å¯
##å°
##å±
##å²
##å³
##åµ
##å¶
##å·
##å¸
##å¹
##å»
##å¼
##å½
##å
##åƒ
##å„
##å†
##åˆ
##å‰
##åŠ
##å‹
##åŒ
##å
##åŽ
##å
##å
##å‘
##å’
##å“
##å•
##å–
##å—
##å›
##å
##åž
##åŸ
##å 
##å¡
##å¦
##å§
##å¨
##å©
##å«
##å¬
##å­
##å®
##å¯
##å±
##å³
##å´
##åµ
##å¶
##å¸
##å¹
##å»
##å¼
##å½
##å¾
##å‘€
##å‘‚
##å‘ƒ
##å‘†
##å‘ˆ
##å‘Š
##å‘‹
##å‘Ž
##å‘
##å‘“
##å‘•
##å‘—
##å‘˜
##å‘›
##å‘œ
##å‘¢
##å‘¤
##å‘¦
##å‘¨
##å‘±
##å‘²
##å‘³
##å‘µ
##å‘·
##å‘¸
##å‘»
##å‘¼
##å‘½
##å’€
##å’
##å’‚
##å’„
##å’†
##å’‹
##å’Œ
##å’Ž
##å’
##å’
##å’’
##å’”
##å’•
##å’–
##å’—
##å’˜
##å’™
##å’š
##å’›
##å’£
##å’¤
##å’¦
##å’§
##å’¨
##å’©
##å’ª
##å’«
##å’¬
##å’­
##å’¯
##å’±
##å’²
##å’³
##å’¸
##å’»
##å’½
##å’¿
##å“€
##å“
##å“‚
##å“„
##å“†
##å“‡
##å“ˆ
##å“‰
##å“‹
##å“Œ
##å“
##å“Ž
##å“
##å“
##å“‘
##å“’
##å“”
##å“—
##å“Ÿ
##å“¡
##å“¥
##å“¦
##å“§
##å“¨
##å“©
##å“ª
##å“­
##å“®
##å“²
##å“º
##å“¼
##å“½
##å”
##å”„
##å”†
##å”‡
##å”‰
##å”
##å”
##å”‘
##å””
##å” 
##å”¤
##å”§
##å”¬
##å”®
##å”¯
##å”°
##å”±
##å”³
##å”·
##å”¸
##å”¾
##å•ƒ
##å•„
##å•†
##å•‰
##å•Š
##å•
##å•“
##å••
##å•–
##å•œ
##å•ž
##å•Ÿ
##å•¡
##å•¤
##å•¥
##å•¦
##å•§
##å•ª
##å•«
##å•¬
##å•®
##å•°
##å•±
##å•²
##å•µ
##å•¶
##å•·
##å•¸
##å•»
##å•¼
##å•¾
##å–€
##å–‚
##å–ƒ
##å–„
##å–†
##å–‡
##å–‰
##å–Š
##å–‹
##å–Ž
##å–
##å–”
##å–˜
##å–™
##å–š
##å–œ
##å–
##å–Ÿ
##å–§
##å–ª
##å–«
##å–¬
##å–®
##å–°
##å–±
##å–²
##å–³
##å–µ
##å–¶
##å–·
##å–¹
##å–º
##å–»
##å–½
##å—…
##å—†
##å—‡
##å—Ž
##å—‘
##å—’
##å—“
##å—”
##å—–
##å—š
##å—œ
##å—
##å—Ÿ
##å—¡
##å—£
##å—¤
##å—¦
##å—¨
##å—ª
##å—¬
##å—¯
##å—°
##å—²
##å—³
##å—¶
##å—·
##å—½
##å˜€
##å˜…
##å˜†
##å˜ˆ
##å˜‰
##å˜Œ
##å˜
##å˜Ž
##å˜”
##å˜–
##å˜—
##å˜˜
##å˜š
##å˜›
##å˜œ
##å˜ž
##å˜Ÿ
##å˜¢
##å˜£
##å˜¤
##å˜§
##å˜©
##å˜­
##å˜®
##å˜¯
##å˜°
##å˜±
##å˜²
##å˜´
##å˜¶
##å˜¸
##å˜¹
##å˜»
##å˜¿
##å™
##å™Œ
##å™Ž
##å™“
##å™”
##å™—
##å™™
##å™œ
##å™ 
##å™¢
##å™¤
##å™¨
##å™©
##å™ª
##å™¬
##å™±
##å™´
##å™¶
##å™¸
##å™¹
##å™»
##å™¼
##åš€
##åš‡
##åšŽ
##åš
##åš
##åš“
##åš•
##åšŸ
##åš£
##åš¥
##åš¨
##åš®
##åš´
##åš·
##åš¼
##å›‚
##å›‰
##å›Š
##å›
##å›‘
##å›”
##å›—
##å›š
##å››
##å›
##å›ž
##å›Ÿ
##å› 
##å›¡
##å›¢
##å›£
##å›¤
##å›§
##å›ª
##å›«
##å›­
##å›°
##å›±
##å›²
##å›³
##å›´
##å›¹
##å›º
##å›½
##å›¾
##å›¿
##åœƒ
##åœ„
##åœ†
##åœˆ
##åœ‹
##åœ
##åœ
##åœ’
##åœ“
##åœ–
##åœ˜
##åœœ
##åœŸ
##åœ£
##åœ§
##åœ¨
##åœ©
##åœ­
##åœ°
##åœ³
##åœº
##åœ»
##åœ¾
##å€
##å‚
##å‡
##åŠ
##å
##åŽ
##å
##å
##å‘
##å—
##åš
##å›
##å
##åž
##åŸ
##å 
##å¡
##å¤
##å¦
##å¨
##åª
##å¯
##å³
##åµ
##å·
##åž‚
##åžƒ
##åž„
##åž‹
##åž’
##åžš
##åž›
##åž 
##åž¢
##åž£
##åž¦
##åž©
##åž«
##åž­
##åž®
##åžµ
##åŸ‚
##åŸƒ
##åŸ‹
##åŸŽ
##åŸ”
##åŸ•
##åŸ—
##åŸŸ
##åŸ 
##åŸ¤
##åŸµ
##åŸ·
##åŸ¸
##åŸ¹
##åŸº
##åŸ¼
##å €
##å ‚
##å ƒ
##å …
##å †
##å ‡
##å ‘
##å •
##å ™
##å ¡
##å ¤
##å ª
##å ¯
##å °
##å ±
##å ´
##å µ
##å º
##å ¿
##å¡Š
##å¡Œ
##å¡‘
##å¡”
##å¡—
##å¡˜
##å¡š
##å¡ž
##å¡¢
##å¡©
##å¡«
##å¡¬
##å¡­
##å¡µ
##å¡¾
##å¢€
##å¢ƒ
##å¢…
##å¢‰
##å¢Š
##å¢’
##å¢“
##å¢—
##å¢˜
##å¢™
##å¢œ
##å¢ž
##å¢Ÿ
##å¢¨
##å¢©
##å¢®
##å¢³
##å¢»
##å¢¾
##å£
##å£…
##å£†
##å£‡
##å£Š
##å£‘
##å£“
##å£•
##å£˜
##å£ž
##å£Ÿ
##å£¢
##å£¤
##å£©
##å£«
##å£¬
##å£®
##å£¯
##å£°
##å£²
##å£³
##å£¶
##å£¹
##å£º
##å£½
##å¤„
##å¤‡
##å¤‰
##å¤
##å¤
##å¤”
##å¤•
##å¤–
##å¤™
##å¤š
##å¤œ
##å¤Ÿ
##å¤ 
##å¤¢
##å¤¥
##å¤§
##å¤©
##å¤ª
##å¤«
##å¤­
##å¤®
##å¤¯
##å¤±
##å¤´
##å¤·
##å¤¸
##å¤¹
##å¤º
##å¤¾
##å¥‚
##å¥„
##å¥‡
##å¥ˆ
##å¥‰
##å¥‹
##å¥Ž
##å¥
##å¥
##å¥‘
##å¥”
##å¥•
##å¥–
##å¥—
##å¥˜
##å¥š
##å¥ 
##å¥¢
##å¥¥
##å¥§
##å¥ª
##å¥¬
##å¥®
##å¥³
##å¥´
##å¥¶
##å¥¸
##å¥¹
##å¥½
##å¦‚
##å¦ƒ
##å¦„
##å¦†
##å¦‡
##å¦ˆ
##å¦Š
##å¦
##å¦’
##å¦“
##å¦–
##å¦˜
##å¦™
##å¦
##å¦ž
##å¦£
##å¦¤
##å¦¥
##å¦¨
##å¦©
##å¦ª
##å¦®
##å¦²
##å¦³
##å¦¹
##å¦»
##å¦¾
##å§†
##å§‰
##å§Š
##å§‹
##å§
##å§
##å§‘
##å§’
##å§“
##å§”
##å§—
##å§š
##å§œ
##å§
##å§£
##å§¥
##å§¦
##å§¨
##å§ª
##å§«
##å§¬
##å§¹
##å§»
##å§¿
##å¨
##å¨ƒ
##å¨„
##å¨…
##å¨†
##å¨‡
##å¨‰
##å¨‘
##å¨“
##å¨˜
##å¨›
##å¨œ
##å¨Ÿ
##å¨ 
##å¨£
##å¨¥
##å¨©
##å¨±
##å¨²
##å¨´
##å¨¶
##å¨¼
##å©€
##å©
##å©†
##å©‰
##å©Š
##å©•
##å©š
##å©¢
##å©¦
##å©§
##å©ª
##å©­
##å©´
##å©µ
##å©¶
##å©·
##å©º
##å©¿
##åª’
##åªš
##åª›
##åªž
##åª§
##åª²
##åª³
##åª½
##åª¾
##å«
##å«‚
##å«‰
##å«Œ
##å«‘
##å«”
##å«–
##å«˜
##å«š
##å«¡
##å«£
##å«¦
##å«©
##å«²
##å«µ
##å«»
##å¬…
##å¬‰
##å¬Œ
##å¬—
##å¬›
##å¬¢
##å¬¤
##å¬ª
##å¬°
##å¬´
##å¬·
##å¬¸
##å¬¿
##å­€
##å­ƒ
##å­
##å­‘
##å­”
##å­•
##å­–
##å­—
##å­˜
##å­™
##å­š
##å­›
##å­œ
##å­
##å­Ÿ
##å­¢
##å­£
##å­¤
##å­¦
##å­©
##å­ª
##å­«
##å­¬
##å­°
##å­±
##å­³
##å­µ
##å­¸
##å­º
##å­½
##å­¿
##å®
##å®ƒ
##å®…
##å®‡
##å®ˆ
##å®‰
##å®‹
##å®Œ
##å®
##å®“
##å®•
##å®—
##å®˜
##å®™
##å®š
##å®›
##å®œ
##å®
##å®ž
##å®Ÿ
##å® 
##å®¡
##å®¢
##å®£
##å®¤
##å®¥
##å®¦
##å®ª
##å®«
##å®®
##å®°
##å®³
##å®´
##å®µ
##å®¶
##å®¸
##å®¹
##å®½
##å®¾
##å®¿
##å¯‚
##å¯„
##å¯…
##å¯†
##å¯‡
##å¯Œ
##å¯
##å¯’
##å¯“
##å¯›
##å¯
##å¯ž
##å¯Ÿ
##å¯¡
##å¯¢
##å¯¥
##å¯¦
##å¯§
##å¯¨
##å¯©
##å¯«
##å¯¬
##å¯®
##å¯°
##å¯µ
##å¯¶
##å¯¸
##å¯¹
##å¯º
##å¯»
##å¯¼
##å¯¾
##å¯¿
##å°
##å°‚
##å°„
##å°†
##å°‡
##å°ˆ
##å°‰
##å°Š
##å°‹
##å°
##å°Ž
##å°
##å°‘
##å°”
##å°•
##å°–
##å°˜
##å°š
##å°
##å°¤
##å°§
##å°¬
##å°±
##å°´
##å°·
##å°¸
##å°¹
##å°º
##å°»
##å°¼
##å°½
##å°¾
##å°¿
##å±€
##å±
##å±‚
##å±„
##å±…
##å±†
##å±ˆ
##å±‰
##å±Š
##å±‹
##å±Œ
##å±
##å±Ž
##å±
##å±
##å±‘
##å±•
##å±œ
##å±ž
##å± 
##å±¡
##å±¢
##å±¤
##å±¥
##å±¬
##å±¯
##å±±
##å±¹
##å±¿
##å²€
##å²
##å²‚
##å²Œ
##å²
##å²‘
##å²”
##å²–
##å²—
##å²˜
##å²™
##å²š
##å²›
##å²¡
##å²©
##å²«
##å²¬
##å²­
##å²±
##å²³
##å²·
##å²¸
##å³‡
##å³‹
##å³’
##å³™
##å³¡
##å³¤
##å³¥
##å³¦
##å³¨
##å³ª
##å³­
##å³¯
##å³°
##å³´
##å³¶
##å³»
##å³½
##å´
##å´‚
##å´†
##å´‡
##å´Ž
##å´‘
##å´”
##å´–
##å´—
##å´™
##å´›
##å´§
##å´©
##å´­
##å´´
##å´½
##åµ‡
##åµŠ
##åµ‹
##åµŒ
##åµ
##åµ˜
##åµ©
##åµ¬
##åµ¯
##å¶‚
##å¶„
##å¶‡
##å¶‹
##å¶™
##å¶º
##å¶¼
##å¶½
##å·…
##å·
##å·’
##å·”
##å·–
##å·
##å·ž
##å·¡
##å·¢
##å·¥
##å·¦
##å·§
##å·¨
##å·©
##å·«
##å·®
##å·±
##å·²
##å·³
##å·´
##å··
##å·»
##å·½
##å·¾
##å·¿
##å¸
##å¸‚
##å¸ƒ
##å¸…
##å¸†
##å¸ˆ
##å¸Œ
##å¸
##å¸‘
##å¸•
##å¸–
##å¸˜
##å¸š
##å¸›
##å¸œ
##å¸
##å¸¥
##å¸¦
##å¸§
##å¸«
##å¸­
##å¸®
##å¸¯
##å¸°
##å¸³
##å¸¶
##å¸·
##å¸¸
##å¸¼
##å¸½
##å¹€
##å¹‚
##å¹„
##å¹…
##å¹Œ
##å¹”
##å¹•
##å¹Ÿ
##å¹¡
##å¹¢
##å¹£
##å¹«
##å¹²
##å¹³
##å¹´
##å¹¶
##å¹¸
##å¹¹
##å¹º
##å¹»
##å¹¼
##å¹½
##å¹¾
##å¹¿
##åº
##åºƒ
##åº„
##åº†
##åº‡
##åºŠ
##åº
##åº
##åº“
##åº”
##åº•
##åº–
##åº—
##åº™
##åºš
##åºœ
##åºž
##åºŸ
##åº 
##åº¦
##åº§
##åº«
##åº­
##åºµ
##åº¶
##åº·
##åº¸
##åº¹
##åº¾
##å»
##å»‚
##å»ƒ
##å»ˆ
##å»‰
##å»Š
##å»“
##å»–
##å»š
##å»
##å»Ÿ
##å» 
##å»¢
##å»£
##å»¬
##å»³
##å»¶
##å»·
##å»º
##å»¿
##å¼€
##å¼
##å¼‚
##å¼ƒ
##å¼„
##å¼ˆ
##å¼Š
##å¼‹
##å¼
##å¼‘
##å¼’
##å¼“
##å¼”
##å¼•
##å¼—
##å¼˜
##å¼›
##å¼Ÿ
##å¼ 
##å¼¥
##å¼¦
##å¼§
##å¼©
##å¼­
##å¼¯
##å¼±
##å¼µ
##å¼·
##å¼¹
##å¼º
##å¼¼
##å¼¾
##å½…
##å½†
##å½ˆ
##å½Œ
##å½Ž
##å½’
##å½“
##å½•
##å½—
##å½™
##å½
##å½¢
##å½¤
##å½¥
##å½¦
##å½§
##å½©
##å½ª
##å½«
##å½¬
##å½­
##å½°
##å½±
##å½·
##å½¹
##å½»
##å½¼
##å½¿
##å¾€
##å¾
##å¾„
##å¾…
##å¾‡
##å¾ˆ
##å¾‰
##å¾Š
##å¾‹
##å¾Œ
##å¾
##å¾‘
##å¾’
##å¾“
##å¾•
##å¾—
##å¾˜
##å¾™
##å¾œ
##å¾ž
##å¾ 
##å¾¡
##å¾¨
##å¾©
##å¾ª
##å¾¬
##å¾®
##å¾³
##å¾´
##å¾µ
##å¾·
##å¾¹
##å¾¼
##å¾½
##å¿ƒ
##å¿…
##å¿†
##å¿Œ
##å¿
##å¿
##å¿
##å¿‘
##å¿’
##å¿–
##å¿—
##å¿˜
##å¿™
##å¿œ
##å¿ 
##å¿¡
##å¿¤
##å¿§
##å¿ª
##å¿«
##å¿±
##å¿µ
##å¿»
##å¿½
##å¿¿
##æ€€
##æ€
##æ€‚
##æ€…
##æ€†
##æ€Ž
##æ€
##æ€’
##æ€”
##æ€•
##æ€–
##æ€™
##æ€œ
##æ€
##æ€ 
##æ€¡
##æ€¥
##æ€¦
##æ€§
##æ€¨
##æ€ª
##æ€¯
##æ€µ
##æ€»
##æ€¼
##æ
##æƒ
##æ†
##æ‹
##æ
##æ
##æ’
##æ•
##æ™
##æš
##æ¢
##æ£
##æ¤
##æ¥
##æ¨
##æ©
##æª
##æ«
##æ¬
##æ­
##æ¯
##æ°
##æ³
##æµ
##æ¶
##æ¸
##æº
##æ»
##æ¼
##æ¿
##æ‚„
##æ‚…
##æ‚‰
##æ‚Œ
##æ‚
##æ‚”
##æ‚–
##æ‚š
##æ‚Ÿ
##æ‚ 
##æ‚£
##æ‚¦
##æ‚¨
##æ‚©
##æ‚ª
##æ‚¬
##æ‚¯
##æ‚±
##æ‚²
##æ‚´
##æ‚µ
##æ‚¶
##æ‚¸
##æ‚»
##æ‚¼
##æ‚½
##æƒ…
##æƒ†
##æƒ‡
##æƒŠ
##æƒ‹
##æƒ‘
##æƒ•
##æƒ˜
##æƒš
##æƒœ
##æƒŸ
##æƒ 
##æƒ¡
##æƒ¦
##æƒ§
##æƒ¨
##æƒ©
##æƒ«
##æƒ¬
##æƒ­
##æƒ®
##æƒ¯
##æƒ°
##æƒ±
##æƒ³
##æƒ´
##æƒ¶
##æƒ¹
##æƒº
##æ„
##æ„†
##æ„ˆ
##æ„‰
##æ„
##æ„
##æ„•
##æ„š
##æ„›
##æ„œ
##æ„Ÿ
##æ„£
##æ„¤
##æ„§
##æ„«
##æ„·
##æ„¿
##æ…„
##æ…ˆ
##æ…‹
##æ…Œ
##æ…Ž
##æ…‘
##æ…•
##æ…˜
##æ…š
##æ…Ÿ
##æ…¢
##æ…£
##æ…§
##æ…¨
##æ…«
##æ…®
##æ…°
##æ…³
##æ…µ
##æ…¶
##æ…·
##æ…¾
##æ†‚
##æ†Š
##æ†‹
##æ†Ž
##æ†
##æ†‘
##æ†”
##æ†š
##æ†¤
##æ†§
##æ†¨
##æ†©
##æ†«
##æ†¬
##æ†²
##æ†¶
##æ†¾
##æ‡‚
##æ‡‡
##æ‡ˆ
##æ‡‰
##æ‡Š
##æ‡‹
##æ‡‘
##æ‡’
##æ‡¦
##æ‡²
##æ‡µ
##æ‡¶
##æ‡·
##æ‡¸
##æ‡º
##æ‡¼
##æ‡¾
##æ‡¿
##æˆ€
##æˆˆ
##æˆŠ
##æˆŒ
##æˆ
##æˆŽ
##æˆ
##æˆ
##æˆ‘
##æˆ’
##æˆ•
##æˆ–
##æˆ˜
##æˆš
##æˆ›
##æˆŸ
##æˆ¡
##æˆ¦
##æˆª
##æˆ¬
##æˆ®
##æˆ°
##æˆ²
##æˆ³
##æˆ´
##æˆ¶
##æˆ·
##æˆ¸
##æˆ»
##æˆ¾
##æˆ¿
##æ‰€
##æ‰
##æ‰‡
##æ‰ˆ
##æ‰‰
##æ‰‹
##æ‰
##æ‰Ž
##æ‰‘
##æ‰’
##æ‰“
##æ‰”
##æ‰•
##æ‰˜
##æ‰›
##æ‰£
##æ‰¦
##æ‰§
##æ‰©
##æ‰ª
##æ‰«
##æ‰¬
##æ‰­
##æ‰®
##æ‰¯
##æ‰°
##æ‰±
##æ‰³
##æ‰¶
##æ‰¹
##æ‰¼
##æ‰¾
##æ‰¿
##æŠ€
##æŠ„
##æŠ‰
##æŠŠ
##æŠ‘
##æŠ’
##æŠ“
##æŠ•
##æŠ–
##æŠ—
##æŠ˜
##æŠš
##æŠ›
##æŠœ
##æŠž
##æŠŸ
##æŠ 
##æŠ¡
##æŠ¢
##æŠ¤
##æŠ¥
##æŠ¨
##æŠ«
##æŠ¬
##æŠ±
##æŠµ
##æŠ¹
##æŠ¼
##æŠ½
##æŠ¿
##æ‹‚
##æ‹„
##æ‹…
##æ‹†
##æ‹‡
##æ‹ˆ
##æ‹‰
##æ‹‹
##æ‹Œ
##æ‹
##æ‹Ž
##æ‹
##æ‹’
##æ‹“
##æ‹”
##æ‹–
##æ‹—
##æ‹˜
##æ‹™
##æ‹š
##æ‹›
##æ‹œ
##æ‹Ÿ
##æ‹¡
##æ‹¢
##æ‹£
##æ‹¥
##æ‹¦
##æ‹§
##æ‹¨
##æ‹©
##æ‹¬
##æ‹­
##æ‹®
##æ‹¯
##æ‹±
##æ‹³
##æ‹´
##æ‹·
##æ‹¼
##æ‹½
##æ‹¾
##æ‹¿
##æŒ
##æŒ‚
##æŒ‡
##æŒˆ
##æŒ‰
##æŒŽ
##æŒ‘
##æŒ–
##æŒ™
##æŒš
##æŒ›
##æŒ
##æŒž
##æŒŸ
##æŒ 
##æŒ¡
##æŒ£
##æŒ¤
##æŒ¥
##æŒ¨
##æŒª
##æŒ«
##æŒ¯
##æŒ²
##æŒ¹
##æŒº
##æŒ½
##æŒ¾
##æ‚
##æ…
##æ†
##æ‰
##æ‹
##æŒ
##æ
##æŽ
##æ
##æ
##æ•
##æž
##æŸ
##æ¡
##æ¢
##æ£
##æ§
##æ¨
##æ©
##æ®
##æ±
##æ²
##æ¶
##æ·
##æº
##æ»
##æŽ€
##æŽ‚
##æŽƒ
##æŽ‡
##æŽˆ
##æŽ‰
##æŽŒ
##æŽ
##æŽ
##æŽ’
##æŽ–
##æŽ˜
##æŽ™
##æŽ›
##æŽ 
##æŽ¡
##æŽ¢
##æŽ£
##æŽ¥
##æŽ§
##æŽ¨
##æŽ©
##æŽª
##æŽ¬
##æŽ°
##æŽ²
##æŽ³
##æŽ´
##æŽ·
##æŽ¸
##æŽº
##æ€
##æƒ
##æ„
##æ†
##æ‰
##æ
##æ
##æ
##æ’
##æ–
##æš
##æ›
##æ¡
##æ£
##æ©
##æª
##æ­
##æ®
##æ´
##æ¶
##æ¸
##æ¹
##æ½
##æ€
##æ
##æ‚
##æ…
##æ
##æ
##æ
##æ“
##æ”
##æ–
##æ—
##æœ
##æž
##æ¡
##æª
##æ¬
##æ­
##æµ
##æ¶
##æº
##æ½
##æ‘€
##æ‘
##æ‘„
##æ‘†
##æ‘‡
##æ‘ˆ
##æ‘Š
##æ‘’
##æ‘”
##æ‘˜
##æ‘ž
##æ‘Ÿ
##æ‘§
##æ‘©
##æ‘¯
##æ‘³
##æ‘¸
##æ‘¹
##æ‘º
##æ‘»
##æ’‚
##æ’ƒ
##æ’…
##æ’‡
##æ’ˆ
##æ’
##æ’‘
##æ’’
##æ’“
##æ’•
##æ’š
##æ’ž
##æ’¤
##æ’¥
##æ’©
##æ’«
##æ’¬
##æ’­
##æ’®
##æ’°
##æ’²
##æ’µ
##æ’·
##æ’¸
##æ’»
##æ’¼
##æ’¿
##æ“€
##æ“
##æ“‚
##æ“„
##æ“…
##æ“‡
##æ“Š
##æ“‹
##æ“
##æ“Ž
##æ“’
##æ“”
##æ“˜
##æ“š
##æ“ž
##æ“ 
##æ“¡
##æ“¢
##æ“¦
##æ“¬
##æ“°
##æ“±
##æ“²
##æ“´
##æ“·
##æ“º
##æ“¼
##æ“¾
##æ”€
##æ”
##æ”’
##æ””
##æ”˜
##æ”™
##æ”œ
##æ”
##æ”ž
##æ”¢
##æ”£
##æ”¤
##æ”¥
##æ”ª
##æ”«
##æ”¬
##æ”¯
##æ”¶
##æ”¸
##æ”¹
##æ”»
##æ”¾
##æ”¿
##æ•…
##æ•ˆ
##æ•Œ
##æ•
##æ•Ž
##æ•
##æ•‘
##æ••
##æ•–
##æ•—
##æ•˜
##æ•™
##æ•›
##æ•
##æ•ž
##æ•¢
##æ•£
##æ•¦
##æ•¬
##æ•°
##æ•²
##æ•´
##æ•µ
##æ•·
##æ•¸
##æ–‚
##æ–ƒ
##æ–‡
##æ–‹
##æ–Œ
##æ–Ž
##æ–
##æ–‘
##æ–“
##æ–—
##æ–™
##æ–›
##æ–œ
##æ–Ÿ
##æ–¡
##æ–¤
##æ–¥
##æ–§
##æ–©
##æ–«
##æ–¬
##æ–­
##æ–¯
##æ–°
##æ–·
##æ–¹
##æ–¼
##æ–½
##æ—
##æ—ƒ
##æ—…
##æ—‹
##æ—Œ
##æ—Ž
##æ—
##æ—–
##æ——
##æ— 
##æ—¢
##æ—¥
##æ—¦
##æ—§
##æ—¨
##æ—©
##æ—¬
##æ—­
##æ—®
##æ—±
##æ—¶
##æ—·
##æ—º
##æ—»
##æ˜€
##æ˜‚
##æ˜†
##æ˜‡
##æ˜‰
##æ˜Š
##æ˜Œ
##æ˜Ž
##æ˜
##æ˜“
##æ˜”
##æ˜•
##æ˜™
##æ˜Ÿ
##æ˜ 
##æ˜¥
##æ˜§
##æ˜¨
##æ˜­
##æ˜¯
##æ˜±
##æ˜´
##æ˜µ
##æ˜¶
##æ˜¼
##æ˜¾
##æ™
##æ™‚
##æ™ƒ
##æ™‰
##æ™‹
##æ™Œ
##æ™
##æ™’
##æ™“
##æ™”
##æ™•
##æ™–
##æ™—
##æ™š
##æ™
##æ™ž
##æ™Ÿ
##æ™¤
##æ™¦
##æ™¨
##æ™©
##æ™®
##æ™¯
##æ™°
##æ™´
##æ™¶
##æ™·
##æ™º
##æ™¾
##æš‚
##æš„
##æš‡
##æšˆ
##æš‰
##æšŒ
##æš
##æš‘
##æš–
##æš—
##æš
##æš¢
##æš§
##æš¨
##æš«
##æš®
##æš±
##æš´
##æš¸
##æš¹
##æ›„
##æ›†
##æ›‡
##æ›‰
##æ›–
##æ›™
##æ›œ
##æ›
##æ› 
##æ›¦
##æ›¬
##æ›°
##æ›²
##æ›³
##æ›´
##æ›¸
##æ›¹
##æ›¼
##æ›¾
##æ›¿
##æœ€
##æœƒ
##æœˆ
##æœ‰
##æœ‹
##æœ
##æœ
##æœ”
##æœ•
##æœ—
##æœ›
##æœ
##æœŸ
##æœ¦
##æœ§
##æœ¨
##æœª
##æœ«
##æœ¬
##æœ­
##æœ®
##æœ¯
##æœ±
##æœ´
##æœµ
##æœº
##æœ½
##æ€
##æ‚
##æƒ
##æ†
##æˆ
##æ‰
##æŽ
##æ
##æ
##æ‘
##æ“
##æ–
##æœ
##æž
##æŸ
##æ 
##æ¡
##æ¥
##æ¨
##æ­
##æ¯
##æ°
##æ±
##æ³
##æµ
##æ·
##æ¼
##æ¾
##æ¿
##æž
##æž„
##æž‡
##æž‰
##æž‹
##æž
##æž•
##æž—
##æžš
##æžœ
##æž
##æž¢
##æž£
##æžª
##æž«
##æž­
##æž¯
##æž°
##æž±
##æž³
##æž¶
##æž·
##æž¸
##æŸ„
##æŸ
##æŸ
##æŸ‘
##æŸ’
##æŸ“
##æŸ”
##æŸ˜
##æŸš
##æŸœ
##æŸž
##æŸ 
##æŸ¢
##æŸ¥
##æŸ©
##æŸ¬
##æŸ¯
##æŸ±
##æŸ³
##æŸ´
##æŸµ
##æŸ»
##æŸ¿
##æ €
##æ ƒ
##æ „
##æ …
##æ ‡
##æ ˆ
##æ ‰
##æ ‹
##æ Ž
##æ 
##æ ‘
##æ “
##æ –
##æ —
##æ ¡
##æ ©
##æ ª
##æ ·
##æ ¸
##æ ¹
##æ ¼
##æ ½
##æ ¾
##æ¡€
##æ¡
##æ¡‚
##æ¡ƒ
##æ¡…
##æ¡†
##æ¡ˆ
##æ¡‰
##æ¡Œ
##æ¡Ž
##æ¡
##æ¡‘
##æ¡“
##æ¡”
##æ¡œ
##æ¡ 
##æ¡¡
##æ¡¢
##æ¡£
##æ¡¥
##æ¡¦
##æ¡§
##æ¡¨
##æ¡©
##æ¡¶
##æ¡¿
##æ¢
##æ¢…
##æ¢†
##æ¢
##æ¢“
##æ¢—
##æ¢
##æ¢Ÿ
##æ¢¢
##æ¢¦
##æ¢§
##æ¢¨
##æ¢­
##æ¢¯
##æ¢°
##æ¢³
##æ¢µ
##æ¢¶
##æ£€
##æ£‚
##æ£„
##æ£‰
##æ£‹
##æ£
##æ£’
##æ£•
##æ£—
##æ£˜
##æ£š
##æ£Ÿ
##æ£ 
##æ££
##æ£§
##æ£®
##æ£±
##æ£²
##æ£µ
##æ£¹
##æ£º
##æ¤
##æ¤…
##æ¤‹
##æ¤
##æ¤Ž
##æ¤’
##æ¤œ
##æ¤ª
##æ¤­
##æ¤°
##æ¤¹
##æ¤½
##æ¤¿
##æ¥‚
##æ¥Š
##æ¥“
##æ¥”
##æ¥š
##æ¥
##æ¥ž
##æ¥ 
##æ¥£
##æ¥¨
##æ¥«
##æ¥­
##æ¥®
##æ¥µ
##æ¥·
##æ¥¸
##æ¥¹
##æ¥¼
##æ¥½
##æ¦‚
##æ¦„
##æ¦†
##æ¦ˆ
##æ¦‰
##æ¦”
##æ¦•
##æ¦–
##æ¦›
##æ¦œ
##æ¦¨
##æ¦«
##æ¦­
##æ¦®
##æ¦±
##æ¦´
##æ¦·
##æ¦»
##æ§
##æ§ƒ
##æ§‹
##æ§Œ
##æ§
##æ§Ž
##æ§
##æ§“
##æ§˜
##æ§›
##æ§Ÿ
##æ§¤
##æ§­
##æ§²
##æ§³
##æ§»
##æ§½
##æ§¿
##æ¨
##æ¨‚
##æ¨Š
##æ¨‘
##æ¨“
##æ¨™
##æ¨ž
##æ¨Ÿ
##æ¨¡
##æ¨£
##æ¨©
##æ¨ª
##æ¨«
##æ¨¯
##æ¨±
##æ¨µ
##æ¨¸
##æ¨¹
##æ¨º
##æ¨½
##æ¨¾
##æ©„
##æ©‡
##æ©‹
##æ©
##æ©˜
##æ©™
##æ©Ÿ
##æ©¡
##æ©¢
##æ©«
##æ©±
##æ©¹
##æ©¼
##æª€
##æª„
##æªŽ
##æª
##æª”
##æª—
##æªœ
##æª¢
##æª¬
##æª¯
##æª³
##æª¸
##æª»
##æ«ƒ
##æ«š
##æ«›
##æ«¥
##æ«¸
##æ«»
##æ¬„
##æ¬Š
##æ¬’
##æ¬–
##æ¬ 
##æ¬¡
##æ¬¢
##æ¬£
##æ¬§
##æ¬²
##æ¬¸
##æ¬º
##æ¬½
##æ¬¾
##æ­†
##æ­‡
##æ­‰
##æ­Œ
##æ­Ž
##æ­
##æ­“
##æ­™
##æ­›
##æ­¡
##æ­¢
##æ­£
##æ­¤
##æ­¥
##æ­¦
##æ­§
##æ­©
##æ­ª
##æ­¯
##æ­²
##æ­³
##æ­´
##æ­·
##æ­¸
##æ­¹
##æ­»
##æ­¼
##æ®
##æ®ƒ
##æ®†
##æ®‡
##æ®‰
##æ®Š
##æ®‹
##æ®’
##æ®“
##æ®–
##æ®˜
##æ®ž
##æ®¡
##æ®¤
##æ®­
##æ®¯
##æ®²
##æ®´
##æ®µ
##æ®·
##æ®º
##æ®¼
##æ®¿
##æ¯€
##æ¯
##æ¯‚
##æ¯…
##æ¯†
##æ¯‹
##æ¯
##æ¯Ž
##æ¯
##æ¯’
##æ¯“
##æ¯”
##æ¯•
##æ¯—
##æ¯˜
##æ¯™
##æ¯›
##æ¯¡
##æ¯«
##æ¯¯
##æ¯½
##æ°ˆ
##æ°
##æ°
##æ°‘
##æ°“
##æ°”
##æ°–
##æ°—
##æ°™
##æ°›
##æ°Ÿ
##æ°¡
##æ°¢
##æ°£
##æ°¤
##æ°¦
##æ°§
##æ°¨
##æ°ª
##æ°«
##æ°®
##æ°¯
##æ°°
##æ°²
##æ°´
##æ°·
##æ°¸
##æ°¹
##æ°¾
##æ±€
##æ±
##æ±‚
##æ±†
##æ±‡
##æ±‰
##æ±Ž
##æ±
##æ±•
##æ±—
##æ±™
##æ±›
##æ±
##æ±ž
##æ±Ÿ
##æ± 
##æ±¡
##æ±¤
##æ±¨
##æ±©
##æ±ª
##æ±°
##æ±²
##æ±´
##æ±¶
##æ±¹
##æ±º
##æ±½
##æ±¾
##æ²
##æ²‚
##æ²ƒ
##æ²…
##æ²ˆ
##æ²‰
##æ²Œ
##æ²
##æ²
##æ²’
##æ²“
##æ²–
##æ²™
##æ²›
##æ²Ÿ
##æ²¡
##æ²¢
##æ²£
##æ²¥
##æ²¦
##æ²§
##æ²ª
##æ²«
##æ²­
##æ²®
##æ²±
##æ²³
##æ²¸
##æ²¹
##æ²»
##æ²¼
##æ²½
##æ²¾
##æ²¿
##æ³
##æ³„
##æ³‰
##æ³Š
##æ³Œ
##æ³“
##æ³•
##æ³—
##æ³›
##æ³ž
##æ³ 
##æ³¡
##æ³¢
##æ³£
##æ³¥
##æ³¨
##æ³ª
##æ³«
##æ³®
##æ³¯
##æ³°
##æ³±
##æ³³
##æ³µ
##æ³·
##æ³¸
##æ³»
##æ³¼
##æ³½
##æ³¾
##æ´
##æ´„
##æ´‹
##æ´’
##æ´—
##æ´™
##æ´›
##æ´ž
##æ´¥
##æ´©
##æ´ª
##æ´®
##æ´±
##æ´²
##æ´µ
##æ´¶
##æ´¸
##æ´¹
##æ´»
##æ´¼
##æ´½
##æ´¾
##æµ
##æµƒ
##æµ„
##æµ…
##æµ†
##æµ‡
##æµŠ
##æµ‹
##æµŽ
##æµ
##æµ‘
##æµ’
##æµ“
##æµ”
##æµ™
##æµš
##æµœ
##æµ£
##æµ¦
##æµ©
##æµª
##æµ¬
##æµ®
##æµ¯
##æµ´
##æµ·
##æµ¸
##æ¶‚
##æ¶…
##æ¶‡
##æ¶ˆ
##æ¶‰
##æ¶Œ
##æ¶Ž
##æ¶“
##æ¶”
##æ¶•
##æ¶™
##æ¶›
##æ¶
##æ¶ž
##æ¶Ÿ
##æ¶ 
##æ¶¡
##æ¶£
##æ¶¤
##æ¶¦
##æ¶§
##æ¶¨
##æ¶©
##æ¶ª
##æ¶®
##æ¶¯
##æ¶²
##æ¶µ
##æ¶¸
##æ¶¼
##æ¶¿
##æ·€
##æ·„
##æ·…
##æ·†
##æ·‡
##æ·‹
##æ·Œ
##æ·‘
##æ·’
##æ·–
##æ·˜
##æ·™
##æ·š
##æ·ž
##æ·¡
##æ·¤
##æ·¦
##æ·¨
##æ·©
##æ·ª
##æ·«
##æ·¬
##æ·®
##æ·±
##æ·³
##æ·µ
##æ··
##æ·¹
##æ·º
##æ·»
##æ·¼
##æ¸…
##æ¸ˆ
##æ¸‰
##æ¸Š
##æ¸‹
##æ¸
##æ¸Ž
##æ¸
##æ¸”
##æ¸—
##æ¸™
##æ¸š
##æ¸›
##æ¸
##æ¸ 
##æ¸¡
##æ¸£
##æ¸¤
##æ¸¥
##æ¸¦
##æ¸©
##æ¸¬
##æ¸­
##æ¸¯
##æ¸²
##æ¸´
##æ¸¸
##æ¸º
##æ¸¾
##æ¹ƒ
##æ¹„
##æ¹Š
##æ¹
##æ¹–
##æ¹˜
##æ¹›
##æ¹Ÿ
##æ¹§
##æ¹«
##æ¹®
##æ¹¯
##æ¹³
##æ¹¾
##æ¹¿
##æº€
##æºƒ
##æº…
##æº‰
##æº
##æº
##æº–
##æºœ
##æº
##æºŸ
##æº¢
##æº¥
##æº§
##æºª
##æº«
##æº¯
##æº±
##æº´
##æº¶
##æºº
##æº¼
##æ»
##æ»‚
##æ»„
##æ»…
##æ»‡
##æ»‹
##æ»Œ
##æ»‘
##æ»“
##æ»”
##æ»•
##æ»™
##æ»š
##æ»
##æ»ž
##æ»Ÿ
##æ»¡
##æ»¢
##æ»¤
##æ»¥
##æ»¦
##æ»¨
##æ»©
##æ»¬
##æ»¯
##æ»²
##æ»´
##æ»·
##æ»¸
##æ»¾
##æ»¿
##æ¼
##æ¼‚
##æ¼†
##æ¼‰
##æ¼
##æ¼“
##æ¼”
##æ¼•
##æ¼ 
##æ¼¢
##æ¼£
##æ¼©
##æ¼ª
##æ¼«
##æ¼¬
##æ¼¯
##æ¼±
##æ¼²
##æ¼³
##æ¼¸
##æ¼¾
##æ¼¿
##æ½†
##æ½‡
##æ½‹
##æ½
##æ½‘
##æ½”
##æ½˜
##æ½›
##æ½œ
##æ½ž
##æ½Ÿ
##æ½¢
##æ½¤
##æ½¦
##æ½§
##æ½­
##æ½®
##æ½°
##æ½´
##æ½¸
##æ½º
##æ½¼
##æ¾€
##æ¾„
##æ¾†
##æ¾ˆ
##æ¾
##æ¾Ž
##æ¾—
##æ¾œ
##æ¾¡
##æ¾¤
##æ¾§
##æ¾±
##æ¾³
##æ¾¹
##æ¿€
##æ¿
##æ¿‚
##æ¿ƒ
##æ¿‘
##æ¿’
##æ¿•
##æ¿˜
##æ¿›
##æ¿Ÿ
##æ¿ 
##æ¿¡
##æ¿¤
##æ¿«
##æ¿¬
##æ¿®
##æ¿¯
##æ¿±
##æ¿º
##æ¿¾
##ç€…
##ç€†
##ç€‰
##ç€‹
##ç€
##ç€‘
##ç€•
##ç€˜
##ç€š
##ç€›
##ç€
##ç€ž
##ç€Ÿ
##ç€§
##ç€¨
##ç€¬
##ç€°
##ç€¾
##çŒ
##ç
##ç‘
##ç˜
##ç
##çž
##ç£
##ç«
##ç¬
##ç­
##ç¯
##ç°
##çµ
##ç¶
##ç¸
##ç¼
##ç½
##ç¾
##ç¿
##ç‚€
##ç‚
##ç‚…
##ç‚‰
##ç‚Š
##ç‚Ž
##ç‚’
##ç‚”
##ç‚•
##ç‚–
##ç‚™
##ç‚œ
##ç‚«
##ç‚¬
##ç‚­
##ç‚®
##ç‚¯
##ç‚³
##ç‚·
##ç‚¸
##ç‚¹
##ç‚º
##ç‚¼
##ç‚½
##çƒ
##çƒ‚
##çƒƒ
##çƒˆ
##çƒŠ
##çƒ
##çƒ˜
##çƒ™
##çƒ›
##çƒŸ
##çƒ¤
##çƒ¦
##çƒ§
##çƒ¨
##çƒ©
##çƒ«
##çƒ¬
##çƒ­
##çƒ¯
##çƒ·
##çƒ¹
##çƒ½
##ç„‰
##ç„Š
##ç„•
##ç„–
##ç„—
##ç„˜
##ç„™
##ç„š
##ç„œ
##ç„¡
##ç„¦
##ç„¯
##ç„°
##ç„±
##ç„¶
##ç„¼
##ç……
##ç…‰
##ç…Š
##ç…Œ
##ç…Ž
##ç…’
##ç…–
##ç…™
##ç…œ
##ç…ž
##ç…¤
##ç…¥
##ç…¦
##ç…§
##ç…¨
##ç…©
##ç…®
##ç…²
##ç…¸
##ç…½
##ç†„
##ç†Š
##ç†
##ç†’
##ç†”
##ç†™
##ç†Ÿ
##ç† 
##ç†¨
##ç†¬
##ç†±
##ç†µ
##ç†¹
##ç†¾
##ç‡
##ç‡ƒ
##ç‡„
##ç‡ˆ
##ç‡‰
##ç‡Š
##ç‡Ž
##ç‡’
##ç‡”
##ç‡•
##ç‡™
##ç‡œ
##ç‡Ÿ
##ç‡¥
##ç‡¦
##ç‡§
##ç‡­
##ç‡®
##ç‡´
##ç‡»
##ç‡¼
##ç‡¿
##çˆ†
##çˆ
##çˆ
##çˆ›
##çˆª
##çˆ¬
##çˆ­
##çˆ°
##çˆ±
##çˆ²
##çˆµ
##çˆ¶
##çˆ·
##çˆ¸
##çˆ¹
##çˆº
##çˆ»
##çˆ½
##çˆ¾
##ç‰†
##ç‰‡
##ç‰ˆ
##ç‰Œ
##ç‰
##ç‰’
##ç‰™
##ç‰›
##ç‰
##ç‰Ÿ
##ç‰ 
##ç‰¡
##ç‰¢
##ç‰¦
##ç‰§
##ç‰©
##ç‰¯
##ç‰²
##ç‰´
##ç‰µ
##ç‰¹
##ç‰º
##ç‰½
##çŠ€
##çŠ
##çŠ„
##çŠŠ
##çŠ
##çŠ’
##çŠ¢
##çŠ§
##çŠ¬
##çŠ¯
##çŠ¶
##çŠ·
##çŠ¸
##çŠ¹
##ç‹€
##ç‹‚
##ç‹„
##ç‹ˆ
##ç‹Ž
##ç‹
##ç‹’
##ç‹—
##ç‹™
##ç‹ž
##ç‹ 
##ç‹¡
##ç‹©
##ç‹¬
##ç‹­
##ç‹®
##ç‹°
##ç‹±
##ç‹¸
##ç‹¹
##ç‹¼
##ç‹½
##çŒŽ
##çŒ•
##çŒ–
##çŒ—
##çŒ™
##çŒ›
##çŒœ
##çŒ
##çŒ¥
##çŒ©
##çŒª
##çŒ«
##çŒ¬
##çŒ®
##çŒ´
##çŒ¶
##çŒ·
##çŒ¾
##çŒ¿
##ç„
##ç…
##çŽ
##ç
##ç’
##ç—
##ç 
##ç£
##ç¨
##ç­
##ç°
##ç²
##çµ
##ç·
##ç¸
##çº
##ç»
##ç¼
##ç¾
##çŽ„
##çŽ‡
##çŽ‰
##çŽ‹
##çŽ‘
##çŽ–
##çŽ›
##çŽŸ
##çŽ 
##çŽ¥
##çŽ©
##çŽ«
##çŽ®
##çŽ¯
##çŽ°
##çŽ²
##çŽ³
##çŽ·
##çŽº
##çŽ»
##ç€
##ç‚
##ç…
##çˆ
##ç‰
##çŠ
##ç
##ç
##ç
##ç‘
##ç™
##çž
##ç 
##ç£
##ç¥
##ç©
##çª
##ç­
##ç®
##ç²
##çº
##ç¾
##çƒ
##ç…
##ç†
##ç‡
##ç‰
##çŠ
##ç
##ç
##ç
##ç›
##ç¢
##ç¥
##ç¦
##ç¨
##çª
##ç¬
##ç®
##ç°
##ç²
##ç³
##ç´
##çµ
##ç¶
##çº
##ç¼
##ç‘€
##ç‘
##ç‘„
##ç‘‹
##ç‘•
##ç‘—
##ç‘™
##ç‘š
##ç‘›
##ç‘œ
##ç‘ž
##ç‘Ÿ
##ç‘ 
##ç‘£
##ç‘¤
##ç‘©
##ç‘ª
##ç‘¯
##ç‘°
##ç‘¶
##ç‘¾
##ç’€
##ç’
##ç’ƒ
##ç’‡
##ç’‰
##ç’‹
##ç’Ž
##ç’
##ç’œ
##ç’ž
##ç’Ÿ
##ç’§
##ç’¨
##ç’°
##ç’½
##ç’¿
##ç“Š
##ç“
##ç“’
##ç“œ
##ç“¢
##ç“£
##ç“¤
##ç“¦
##ç“®
##ç“¯
##ç“´
##ç“¶
##ç“·
##ç”„
##ç”Œ
##ç”•
##ç”˜
##ç”™
##ç”š
##ç”œ
##ç”Ÿ
##ç”¢
##ç”£
##ç”¥
##ç”¦
##ç”¨
##ç”©
##ç”«
##ç”¬
##ç”­
##ç”¯
##ç”°
##ç”±
##ç”²
##ç”³
##ç”µ
##ç”·
##ç”¸
##ç”º
##ç”»
##ç”¾
##ç•€
##ç•…
##ç•Œ
##ç•
##ç•‘
##ç•”
##ç•™
##ç•œ
##ç•
##ç•¢
##ç•¥
##ç•¦
##ç•ª
##ç•«
##ç•°
##ç•²
##ç•³
##ç•´
##ç•¶
##ç•¸
##ç•¹
##ç•¿
##ç–†
##ç–‡
##ç–Š
##ç–
##ç–‘
##ç–”
##ç––
##ç–—
##ç–™
##ç–š
##ç–
##ç–Ÿ
##ç–¡
##ç–£
##ç–¤
##ç–¥
##ç–«
##ç–®
##ç–¯
##ç–±
##ç–²
##ç–³
##ç–µ
##ç–¸
##ç–¹
##ç–¼
##ç–½
##ç–¾
##ç—‚
##ç—…
##ç—‡
##ç—ˆ
##ç—‰
##ç—Š
##ç—
##ç—’
##ç—”
##ç—•
##ç—˜
##ç—™
##ç—›
##ç—ž
##ç— 
##ç—¢
##ç—£
##ç—¤
##ç—§
##ç—¨
##ç—ª
##ç—«
##ç—°
##ç—±
##ç—´
##ç—¹
##ç—º
##ç—¼
##ç—¿
##ç˜€
##ç˜
##ç˜‹
##ç˜
##ç˜“
##ç˜˜
##ç˜™
##ç˜Ÿ
##ç˜ 
##ç˜¡
##ç˜¢
##ç˜¤
##ç˜¦
##ç˜§
##ç˜©
##ç˜ª
##ç˜«
##ç˜´
##ç˜¸
##ç˜¾
##ç™‚
##ç™‡
##ç™Œ
##ç™’
##ç™–
##ç™œ
##ç™ž
##ç™¡
##ç™¢
##ç™£
##ç™¥
##ç™«
##ç™¬
##ç™®
##ç™±
##ç™²
##ç™¸
##ç™º
##ç™»
##ç™¼
##ç™½
##ç™¾
##çš‚
##çš„
##çš†
##çš‡
##çšˆ
##çš‹
##çšŽ
##çš‘
##çš“
##çš–
##çš™
##çšš
##çš®
##çš°
##çš±
##çš´
##çšº
##çš¿
##ç›‚
##ç›ƒ
##ç›…
##ç›†
##ç›ˆ
##ç›Š
##ç›Ž
##ç›
##ç›
##ç›‘
##ç›’
##ç›”
##ç›–
##ç›—
##ç›˜
##ç››
##ç›œ
##ç›ž
##ç›Ÿ
##ç›¡
##ç›£
##ç›¤
##ç›¥
##ç›§
##ç›ª
##ç›®
##ç›¯
##ç›±
##ç›²
##ç›´
##ç›¸
##ç›¹
##ç›¼
##ç›¾
##çœ
##çœˆ
##çœ‰
##çœ‹
##çœŒ
##çœ™
##çœž
##çœŸ
##çœ 
##çœ¦
##çœ¨
##çœ©
##çœ¯
##çœ¶
##çœ·
##çœ¸
##çœº
##çœ¼
##çœ¾
##ç€
##ç
##ç‡
##ç
##ç
##ç‘
##ç›
##çœ
##çž
##ç¡
##ç¢
##ç£
##ç¥
##ç¦
##ç¨
##çª
##ç«
##ç¬
##ç¹
##ç½
##ç¾
##ç¿
##çž„
##çž…
##çž‡
##çž‹
##çžŒ
##çžŽ
##çž‘
##çž’
##çž“
##çžž
##çžŸ
##çž 
##çž¥
##çž§
##çž©
##çžª
##çž¬
##çž­
##çž°
##çž³
##çž»
##çž¼
##çž¿
##çŸ‡
##çŸ
##çŸ—
##çŸš
##çŸ›
##çŸœ
##çŸ¢
##çŸ£
##çŸ¥
##çŸ©
##çŸ«
##çŸ­
##çŸ®
##çŸ¯
##çŸ³
##çŸ¶
##çŸ½
##çŸ¾
##çŸ¿
##ç 
##ç ‚
##ç Œ
##ç 
##ç ’
##ç ”
##ç –
##ç —
##ç š
##ç 
##ç £
##ç ¥
##ç §
##ç ­
##ç °
##ç ²
##ç ´
##ç ·
##ç ¸
##ç º
##ç ¼
##ç ¾
##ç¡€
##ç¡…
##ç¡
##ç¡’
##ç¡•
##ç¡
##ç¡«
##ç¡¬
##ç¡®
##ç¡¯
##ç¡¼
##ç¢
##ç¢‡
##ç¢‰
##ç¢Œ
##ç¢
##ç¢Ž
##ç¢‘
##ç¢“
##ç¢—
##ç¢˜
##ç¢š
##ç¢›
##ç¢Ÿ
##ç¢£
##ç¢§
##ç¢©
##ç¢°
##ç¢±
##ç¢³
##ç¢´
##ç¢º
##ç¢¼
##ç¢¾
##ç£
##ç£…
##ç£Š
##ç£‹
##ç£
##ç£•
##ç£š
##ç£¡
##ç£¨
##ç£¬
##ç£¯
##ç£²
##ç£·
##ç£º
##ç¤
##ç¤Ž
##ç¤™
##ç¤¡
##ç¤¦
##ç¤ª
##ç¤«
##ç¤´
##ç¤º
##ç¤¼
##ç¤¾
##ç¥€
##ç¥
##ç¥‚
##ç¥‡
##ç¥ˆ
##ç¥‰
##ç¥Ž
##ç¥
##ç¥•
##ç¥–
##ç¥—
##ç¥š
##ç¥›
##ç¥œ
##ç¥
##ç¥ž
##ç¥Ÿ
##ç¥ 
##ç¥¢
##ç¥¥
##ç¥¨
##ç¥­
##ç¥¯
##ç¥·
##ç¥¸
##ç¥º
##ç¥¿
##ç¦€
##ç¦
##ç¦„
##ç¦…
##ç¦
##ç¦Ž
##ç¦
##ç¦›
##ç¦¦
##ç¦§
##ç¦ª
##ç¦®
##ç¦±
##ç¦¹
##ç¦º
##ç¦»
##ç¦½
##ç¦¾
##ç¦¿
##ç§€
##ç§
##ç§ƒ
##ç§†
##ç§‰
##ç§‹
##ç§
##ç§‘
##ç§’
##ç§˜
##ç§Ÿ
##ç§£
##ç§¤
##ç§¦
##ç§§
##ç§©
##ç§­
##ç§¯
##ç§°
##ç§¸
##ç§»
##ç§½
##ç¨€
##ç¨…
##ç¨‹
##ç¨
##ç¨Ž
##ç¨”
##ç¨—
##ç¨š
##ç¨œ
##ç¨ž
##ç¨Ÿ
##ç¨ 
##ç¨£
##ç¨®
##ç¨±
##ç¨²
##ç¨³
##ç¨·
##ç¨¹
##ç¨»
##ç¨¼
##ç¨½
##ç¨¿
##ç©€
##ç©‚
##ç©†
##ç©Œ
##ç©
##ç©Ž
##ç©—
##ç©¢
##ç©©
##ç©«
##ç©´
##ç©¶
##ç©·
##ç©¹
##ç©º
##ç©¿
##çª
##çªƒ
##çª„
##çªˆ
##çª
##çª‘
##çª’
##çª“
##çª•
##çª–
##çª—
##çª˜
##çªœ
##çª
##çªŸ
##çª 
##çª¥
##çª¦
##çª¨
##çª©
##çªª
##çª®
##çª¯
##çªº
##çª¿
##ç«„
##ç«…
##ç«‡
##ç«Š
##ç«‹
##ç«–
##ç«™
##ç«œ
##ç«ž
##ç«Ÿ
##ç« 
##ç«£
##ç«¥
##ç«­
##ç«¯
##ç«¶
##ç«¹
##ç«º
##ç«½
##ç«¿
##ç¬ƒ
##ç¬†
##ç¬ˆ
##ç¬‹
##ç¬
##ç¬‘
##ç¬”
##ç¬™
##ç¬›
##ç¬ž
##ç¬ 
##ç¬¦
##ç¬¨
##ç¬¬
##ç¬¹
##ç¬º
##ç¬¼
##ç­†
##ç­‰
##ç­Š
##ç­‹
##ç­
##ç­
##ç­
##ç­‘
##ç­’
##ç­”
##ç­–
##ç­›
##ç­
##ç­ 
##ç­±
##ç­²
##ç­µ
##ç­·
##ç­¹
##ç­¾
##ç®€
##ç®‡
##ç®‹
##ç®
##ç®
##ç®
##ç®”
##ç®•
##ç®—
##ç®
##ç®¡
##ç®©
##ç®«
##ç®­
##ç®±
##ç®´
##ç®¸
##ç¯€
##ç¯
##ç¯„
##ç¯†
##ç¯‡
##ç¯‰
##ç¯‘
##ç¯“
##ç¯™
##ç¯
##ç¯ 
##ç¯¡
##ç¯¤
##ç¯©
##ç¯ª
##ç¯®
##ç¯±
##ç¯·
##ç°‡
##ç°Œ
##ç°
##ç°¡
##ç°¦
##ç°§
##ç°ª
##ç°«
##ç°·
##ç°¸
##ç°½
##ç°¾
##ç°¿
##ç±
##ç±ƒ
##ç±Œ
##ç±
##ç±
##ç±Ÿ
##ç± 
##ç±¤
##ç±¬
##ç±®
##ç±²
##ç±³
##ç±»
##ç±¼
##ç±½
##ç²„
##ç²‰
##ç²‘
##ç²’
##ç²•
##ç²—
##ç²˜
##ç²Ÿ
##ç²¤
##ç²¥
##ç²§
##ç²ª
##ç²®
##ç²±
##ç²²
##ç²³
##ç²µ
##ç²¹
##ç²¼
##ç²½
##ç²¾
##ç²¿
##ç³…
##ç³Š
##ç³
##ç³•
##ç³–
##ç³—
##ç³™
##ç³œ
##ç³ž
##ç³Ÿ
##ç³ 
##ç³§
##ç³¬
##ç³¯
##ç³°
##ç³¸
##ç³»
##ç³¾
##ç´€
##ç´‚
##ç´„
##ç´…
##ç´‰
##ç´Š
##ç´‹
##ç´
##ç´
##ç´“
##ç´”
##ç´—
##ç´˜
##ç´™
##ç´š
##ç´›
##ç´œ
##ç´ 
##ç´¡
##ç´¢
##ç´§
##ç´«
##ç´®
##ç´¯
##ç´°
##ç´³
##ç´¹
##ç´º
##çµ‚
##çµƒ
##çµ„
##çµ†
##çµŒ
##çµ
##çµ•
##çµž
##çµ¡
##çµ¢
##çµ¦
##çµ¨
##çµ®
##çµ±
##çµ²
##çµ³
##çµµ
##çµ¶
##çµ¹
##ç¶
##ç¶
##ç¶‘
##ç¶“
##ç¶™
##ç¶š
##ç¶œ
##ç¶ 
##ç¶¢
##ç¶¦
##ç¶«
##ç¶¬
##ç¶­
##ç¶±
##ç¶²
##ç¶´
##ç¶µ
##ç¶¸
##ç¶º
##ç¶»
##ç¶½
##ç¶¾
##ç¶¿
##ç·Š
##ç·‹
##ç·
##ç·‘
##ç·’
##ç·˜
##ç·š
##ç·
##ç·ž
##ç· 
##ç·£
##ç·¨
##ç·©
##ç·¬
##ç·¯
##ç·´
##ç·¹
##ç·»
##ç¸
##ç¸„
##ç¸ˆ
##ç¸›
##ç¸
##ç¸£
##ç¸«
##ç¸®
##ç¸±
##ç¸´
##ç¸·
##ç¸½
##ç¸¾
##ç¹
##ç¹ƒ
##ç¹†
##ç¹‡
##ç¹‹
##ç¹”
##ç¹•
##ç¹š
##ç¹ž
##ç¹¡
##ç¹©
##ç¹ª
##ç¹«
##ç¹­
##ç¹³
##ç¹¹
##ç¹¼
##ç¹½
##çº‚
##çºŒ
##çº
##çº
##çº“
##çº”
##çº–
##çºœ
##çº 
##çº¢
##çº£
##çº¤
##çº¦
##çº§
##çº¨
##çºª
##çº«
##çº¬
##çº­
##çº¯
##çº°
##çº±
##çº²
##çº³
##çºµ
##çº¶
##çº·
##çº¸
##çº¹
##çºº
##çº½
##çº¾
##çº¿
##ç»€
##ç»ƒ
##ç»„
##ç»…
##ç»†
##ç»‡
##ç»ˆ
##ç»Š
##ç»
##ç»Ž
##ç»
##ç»‘
##ç»’
##ç»“
##ç»”
##ç»•
##ç»˜
##ç»™
##ç»š
##ç»›
##ç»œ
##ç»
##ç»ž
##ç»Ÿ
##ç»¡
##ç»¢
##ç»£
##ç»¥
##ç»¦
##ç»§
##ç»©
##ç»ª
##ç»«
##ç»­
##ç»®
##ç»¯
##ç»°
##ç»³
##ç»´
##ç»µ
##ç»¶
##ç»·
##ç»¸
##ç»»
##ç»¼
##ç»½
##ç»¾
##ç»¿
##ç¼€
##ç¼„
##ç¼…
##ç¼†
##ç¼‡
##ç¼ˆ
##ç¼‰
##ç¼Ž
##ç¼“
##ç¼”
##ç¼•
##ç¼–
##ç¼˜
##ç¼™
##ç¼š
##ç¼œ
##ç¼
##ç¼ 
##ç¼¢
##ç¼¤
##ç¼¥
##ç¼¨
##ç¼©
##ç¼ª
##ç¼­
##ç¼®
##ç¼°
##ç¼±
##ç¼´
##ç¼¸
##ç¼º
##ç¼½
##ç½‚
##ç½„
##ç½Œ
##ç½
##ç½‘
##ç½”
##ç½•
##ç½—
##ç½š
##ç½¡
##ç½¢
##ç½©
##ç½ª
##ç½®
##ç½°
##ç½²
##ç½µ
##ç½·
##ç½¹
##ç¾
##ç¾…
##ç¾ˆ
##ç¾Š
##ç¾Œ
##ç¾Ž
##ç¾”
##ç¾š
##ç¾ž
##ç¾Ÿ
##ç¾¡
##ç¾£
##ç¾¤
##ç¾¥
##ç¾§
##ç¾¨
##ç¾©
##ç¾¯
##ç¾²
##ç¾¸
##ç¾¹
##ç¾½
##ç¾¿
##ç¿
##ç¿…
##ç¿Š
##ç¿Œ
##ç¿Ž
##ç¿’
##ç¿”
##ç¿˜
##ç¿Ÿ
##ç¿ 
##ç¿¡
##ç¿¦
##ç¿©
##ç¿°
##ç¿±
##ç¿³
##ç¿¹
##ç¿»
##ç¿¼
##è€€
##è€
##è€ƒ
##è€„
##è€…
##è€†
##è€‹
##è€Œ
##è€
##è€
##è€’
##è€•
##è€—
##è€˜
##è€™
##è€¦
##è€¨
##è€³
##è€¶
##è€·
##è€¸
##è€»
##è€½
##è€¿
##è‚
##è†
##èŠ
##è‹
##èŒ
##è’
##è”
##è–
##è˜
##èš
##èž
##èª
##è¯
##è°
##è²
##è³
##è´
##è¶
##è·
##è½
##è¾
##è¿
##è‚ƒ
##è‚„
##è‚…
##è‚†
##è‚‡
##è‚‰
##è‚‹
##è‚Œ
##è‚
##è‚“
##è‚–
##è‚˜
##è‚š
##è‚›
##è‚
##è‚ 
##è‚¡
##è‚¢
##è‚¤
##è‚¥
##è‚©
##è‚ª
##è‚®
##è‚¯
##è‚±
##è‚²
##è‚´
##è‚º
##è‚½
##è‚¾
##è‚¿
##èƒ€
##èƒ
##èƒƒ
##èƒ„
##èƒ†
##èƒŒ
##èƒ
##èƒŽ
##èƒ–
##èƒš
##èƒ›
##èƒœ
##èƒ
##èƒž
##èƒ¡
##èƒ¤
##èƒ¥
##èƒ§
##èƒ«
##èƒ­
##èƒ¯
##èƒ°
##èƒ±
##èƒ³
##èƒ´
##èƒ¶
##èƒ¸
##èƒº
##èƒ½
##è„‚
##è„…
##è„†
##è„‡
##è„ˆ
##è„‰
##è„Š
##è„
##è„
##è„
##è„‘
##è„“
##è„–
##è„˜
##è„š
##è„›
##è„£
##è„©
##è„«
##è„¯
##è„±
##è„²
##è„³
##è„¸
##è„¹
##è„¾
##è…†
##è…ˆ
##è…Š
##è…‹
##è…Œ
##è…Ž
##è…
##è…‘
##è…“
##è…”
##è…•
##è…¥
##è…¦
##è…©
##è…«
##è…­
##è…®
##è…°
##è…±
##è…³
##è…´
##è…¸
##è…¹
##è…º
##è…»
##è…¼
##è…¾
##è…¿
##è†€
##è†ˆ
##è†Š
##è†
##è†‘
##è†˜
##è†š
##è†›
##è†œ
##è†
##è† 
##è†¦
##è†¨
##è†©
##è†³
##è†º
##è†»
##è†½
##è†¾
##è†¿
##è‡€
##è‡‚
##è‡ƒ
##è‡†
##è‡‰
##è‡Š
##è‡
##è‡“
##è‡˜
##è‡Ÿ
##è‡£
##è‡¥
##è‡§
##è‡¨
##è‡ª
##è‡¬
##è‡­
##è‡³
##è‡´
##è‡º
##è‡»
##è‡¼
##è‡¾
##èˆ€
##èˆ‚
##èˆ…
##èˆ†
##èˆ‡
##èˆˆ
##èˆ‰
##èˆŠ
##èˆŒ
##èˆ
##èˆŽ
##èˆ
##èˆ’
##èˆ”
##èˆ–
##èˆ—
##èˆ›
##èˆœ
##èˆž
##èˆŸ
##èˆª
##èˆ«
##èˆ¬
##èˆ°
##èˆ±
##èˆµ
##èˆ¶
##èˆ·
##èˆ¸
##èˆ¹
##èˆº
##èˆ¾
##è‰‡
##è‰‹
##è‰˜
##è‰™
##è‰¦
##è‰®
##è‰¯
##è‰°
##è‰±
##è‰²
##è‰³
##è‰·
##è‰¹
##è‰º
##è‰¾
##èŠ‚
##èŠƒ
##èŠˆ
##èŠŠ
##èŠ‹
##èŠ
##èŠŽ
##èŠ’
##èŠ™
##èŠœ
##èŠ
##èŠ¡
##èŠ¥
##èŠ¦
##èŠ©
##èŠª
##èŠ«
##èŠ¬
##èŠ­
##èŠ®
##èŠ¯
##èŠ±
##èŠ³
##èŠ·
##èŠ¸
##èŠ¹
##èŠ»
##èŠ½
##èŠ¾
##è‹
##è‹„
##è‹‡
##è‹‹
##è‹
##è‹
##è‹‘
##è‹’
##è‹“
##è‹”
##è‹•
##è‹—
##è‹›
##è‹œ
##è‹ž
##è‹Ÿ
##è‹¡
##è‹£
##è‹¥
##è‹¦
##è‹«
##è‹¯
##è‹±
##è‹·
##è‹¹
##è‹»
##èŒ
##èŒ‚
##èŒƒ
##èŒ„
##èŒ…
##èŒ‰
##èŒŽ
##èŒ
##èŒ—
##èŒœ
##èŒ§
##èŒ¨
##èŒ«
##èŒ¬
##èŒ­
##èŒ¯
##èŒ±
##èŒ²
##èŒ´
##èŒµ
##èŒ¶
##èŒ¸
##èŒ¹
##èŒ¼
##è€
##èƒ
##è†
##è‰
##èŠ
##è
##è
##è’
##è”
##è–
##è˜
##èš
##èž
##èŸ
##è 
##è¡
##è£
##è¤
##è¥
##è§
##è¨
##èª
##è«
##è¯
##è³
##è·
##è¸
##è»
##è¼
##è½
##èŽ…
##èŽ†
##èŽ‰
##èŽŠ
##èŽŽ
##èŽ’
##èŽ“
##èŽ–
##èŽ˜
##èŽž
##èŽ 
##èŽ¢
##èŽ§
##èŽª
##èŽ«
##èŽ±
##èŽ²
##èŽ´
##èŽ·
##èŽ¹
##èŽº
##èŽ½
##èŽ¿
##è€
##è
##è…
##è‡
##èˆ
##èŠ
##èŒ
##è
##è“
##è–
##è˜
##èœ
##èŸ
##è 
##è¡
##è©
##è¯
##è±
##è²
##è¸
##è½
##è
##èƒ
##è„
##èŠ
##è‹
##èŒ
##è
##èŽ
##è˜
##è
##è¤
##è¥
##è¦
##è§
##è¨
##è©
##è¬
##è±
##èµ
##è¸
##è¼
##è½
##è‘†
##è‘‰
##è‘—
##è‘š
##è‘›
##è‘¡
##è‘£
##è‘¦
##è‘©
##è‘«
##è‘¬
##è‘­
##è‘¯
##è‘±
##è‘³
##è‘µ
##è‘·
##è‘º
##è’‚
##è’‹
##è’
##è’”
##è’™
##è’œ
##è’ž
##è’Ÿ
##è’¡
##è’¨
##è’²
##è’¸
##è’¹
##è’»
##è’¼
##è’¿
##è“
##è“„
##è“†
##è“‰
##è“‹
##è“‘
##è““
##è“–
##è“
##è“Ÿ
##è“¦
##è“¬
##è“®
##è“¼
##è“¿
##è”‘
##è”“
##è””
##è”—
##è”˜
##è”š
##è”¡
##è”£
##è”¥
##è”«
##è”¬
##è”­
##è”µ
##è”·
##è”º
##è”»
##è”¼
##è”½
##è•
##è•ƒ
##è•ˆ
##è•‰
##è•Š
##è•Ž
##è•™
##è•¤
##è•¨
##è•©
##è•ª
##è•­
##è•²
##è•´
##è•»
##è•¾
##è–„
##è–…
##è–‡
##è–ˆ
##è–Š
##è–
##è–‘
##è–”
##è–™
##è–›
##è–¦
##è–¨
##è–©
##è–ª
##è–¬
##è–¯
##è–°
##è–¹
##è—‰
##è—
##è—
##è—
##è—“
##è—•
##è—œ
##è—
##è—¤
##è—¥
##è—©
##è—¹
##è—»
##è—¿
##è˜†
##è˜‡
##è˜Š
##è˜‹
##è˜‘
##è˜š
##è˜­
##è˜¸
##è˜¼
##è˜¿
##è™Ž
##è™
##è™
##è™‘
##è™”
##è™•
##è™š
##è™›
##è™œ
##è™ž
##è™Ÿ
##è™¢
##è™§
##è™«
##è™¬
##è™±
##è™¹
##è™»
##è™½
##è™¾
##èš€
##èš
##èš‚
##èšŠ
##èšŒ
##èš“
##èš•
##èšœ
##èš
##èš£
##èš¤
##èš©
##èšª
##èš¯
##èš±
##èšµ
##è›€
##è›†
##è›‡
##è›Š
##è›‹
##è›Ž
##è›
##è›”
##è›™
##è››
##è›Ÿ
##è›¤
##è›­
##è›®
##è›°
##è›³
##è›¹
##è›»
##è›¾
##èœ€
##èœ‚
##èœƒ
##èœ†
##èœ‡
##èœˆ
##èœŠ
##èœ
##èœ’
##èœ“
##èœ•
##èœ—
##èœ˜
##èœš
##èœœ
##èœ¡
##èœ¢
##èœ¥
##èœ±
##èœ´
##èœ·
##èœ»
##èœ¿
##è‡
##èˆ
##è‰
##èŒ
##èŽ
##è•
##è—
##è™
##èŸ
##è 
##è¦
##è¨
##è´
##è¶
##è¸
##è¼
##èž‚
##èžƒ
##èž
##èžž
##èž¢
##èž¨
##èž¯
##èž³
##èžº
##èŸ€
##èŸ„
##èŸ†
##èŸ‹
##èŸŽ
##èŸ‘
##èŸ’
##èŸ 
##èŸ¬
##èŸ²
##èŸ¹
##èŸ»
##èŸ¾
##è …
##è 
##è ”
##è •
##è ›
##è Ÿ
##è ¡
##è ¢
##è £
##è ±
##è ¶
##è ¹
##è »
##è¡€
##è¡„
##è¡…
##è¡†
##è¡Œ
##è¡
##è¡“
##è¡”
##è¡—
##è¡™
##è¡›
##è¡
##è¡ž
##è¡¡
##è¡¢
##è¡£
##è¡¥
##è¡¨
##è¡©
##è¡«
##è¡¬
##è¡®
##è¡°
##è¡²
##è¡·
##è¡¹
##è¡¾
##è¡¿
##è¢
##è¢‚
##è¢„
##è¢…
##è¢ˆ
##è¢‹
##è¢
##è¢’
##è¢–
##è¢œ
##è¢ž
##è¢¤
##è¢ª
##è¢«
##è¢­
##è¢±
##è£
##è£‚
##è£…
##è£†
##è£Š
##è£
##è£”
##è£•
##è£˜
##è£™
##è£œ
##è£
##è£Ÿ
##è£¡
##è£¤
##è£¨
##è£±
##è£³
##è£´
##è£¸
##è£¹
##è£½
##è£¾
##è¤‚
##è¤‡
##è¤
##è¤’
##è¤“
##è¤”
##è¤š
##è¤¥
##è¤ª
##è¤«
##è¤²
##è¤¶
##è¤»
##è¥
##è¥„
##è¥Ÿ
##è¥ 
##è¥ª
##è¥¬
##è¥¯
##è¥²
##è¥¿
##è¦
##è¦ƒ
##è¦†
##è¦‡
##è¦‹
##è¦
##è¦“
##è¦–
##è¦š
##è¦¦
##è¦§
##è¦ª
##è¦¬
##è¦³
##è¦·
##è¦º
##è¦½
##è§€
##è§
##è§‚
##è§„
##è§…
##è§†
##è§ˆ
##è§‰
##è§Š
##è§Ž
##è§
##è§‘
##è§’
##è§ž
##è§£
##è§¥
##è§¦
##è§¸
##è¨€
##è¨‚
##è¨ˆ
##è¨Š
##è¨Ž
##è¨“
##è¨•
##è¨–
##è¨—
##è¨˜
##è¨›
##è¨
##è¨Ÿ
##è¨£
##è¨¥
##è¨ª
##è¨­
##è¨±
##è¨³
##è¨´
##è¨¶
##è¨º
##è¨»
##è¨¼
##è©†
##è©
##è©”
##è©•
##è©›
##è©ž
##è© 
##è©¡
##è©¢
##è©£
##è©¦
##è©©
##è©«
##è©¬
##è©­
##è©®
##è©°
##è©±
##è©²
##è©³
##è©¹
##è©¼
##èª…
##èª‡
##èª‰
##èªŒ
##èª
##èª“
##èª•
##èª˜
##èªž
##èª 
##èª¡
##èª£
##èª¤
##èª¥
##èª¦
##èª¨
##èªª
##èª¬
##èª­
##èª°
##èª²
##èª¹
##èª¼
##èª¿
##è«„
##è«‡
##è«‹
##è«
##è«’
##è«–
##è«—
##è«œ
##è«¡
##è«¦
##è«§
##è««
##è«­
##è«®
##è«±
##è«³
##è«·
##è«¸
##è«º
##è«¾
##è¬€
##è¬
##è¬‚
##è¬„
##è¬Š
##è¬Ž
##è¬
##è¬”
##è¬—
##è¬™
##è¬›
##è¬
##è¬ 
##è¬¨
##è¬¬
##è¬¹
##è¬¾
##è­
##è­‰
##è­Ž
##è­
##è­˜
##è­™
##è­š
##è­œ
##è­¦
##è­¬
##è­¯
##è­°
##è­²
##è­´
##è­·
##è­½
##è®€
##è®Š
##è®“
##è®š
##è®ž
##è®¡
##è®¢
##è®¤
##è®¥
##è®§
##è®¨
##è®©
##è®ª
##è®«
##è®­
##è®®
##è®¯
##è®°
##è®²
##è®³
##è®´
##è®¶
##è®·
##è®¸
##è®¹
##è®º
##è®¼
##è®½
##è®¾
##è®¿
##è¯€
##è¯
##è¯ƒ
##è¯„
##è¯…
##è¯†
##è¯ˆ
##è¯‰
##è¯Š
##è¯‹
##è¯
##è¯
##è¯‘
##è¯•
##è¯—
##è¯˜
##è¯™
##è¯š
##è¯›
##è¯
##è¯ž
##è¯Ÿ
##è¯ 
##è¯¡
##è¯¢
##è¯£
##è¯¤
##è¯¥
##è¯¦
##è¯§
##è¯©
##è¯«
##è¯¬
##è¯­
##è¯¯
##è¯°
##è¯±
##è¯²
##è¯´
##è¯µ
##è¯¶
##è¯·
##è¯¸
##è¯º
##è¯»
##è¯½
##è¯¾
##è¯¿
##è°€
##è°
##è°ƒ
##è°„
##è°…
##è°†
##è°ˆ
##è°Š
##è°‹
##è°Œ
##è°
##è°Ž
##è°
##è°
##è°‘
##è°’
##è°“
##è°”
##è°•
##è°—
##è°˜
##è°™
##è°š
##è°›
##è°œ
##è°Ÿ
##è°¢
##è°£
##è°¤
##è°¥
##è°¦
##è°§
##è°¨
##è°©
##è°ª
##è°¬
##è°­
##è°¯
##è°±
##è°²
##è°´
##è°¶
##è°·
##è±
##è±†
##è±‡
##è±ˆ
##è±‰
##è±Š
##è±Œ
##è±Ž
##è±
##è±”
##è±š
##è±¡
##è±¢
##è±ª
##è±«
##è±¬
##è±¹
##è±º
##è²‚
##è²…
##è²Œ
##è²“
##è²”
##è²˜
##è²
##è²ž
##è² 
##è²¡
##è²¢
##è²§
##è²¨
##è²©
##è²ª
##è²«
##è²¬
##è²¯
##è²°
##è²³
##è²´
##è²¶
##è²·
##è²¸
##è²»
##è²¼
##è²½
##è²¿
##è³€
##è³
##è³‚
##è³ƒ
##è³„
##è³‡
##è³ˆ
##è³Š
##è³‘
##è³“
##è³œ
##è³ž
##è³ 
##è³¡
##è³¢
##è³£
##è³¤
##è³¦
##è³ª
##è³¬
##è³­
##è³´
##è³º
##è³¼
##è³½
##è´…
##è´ˆ
##è´Š
##è´
##è´
##è´“
##è´–
##è´›
##è´
##è´ž
##è´Ÿ
##è´¡
##è´¢
##è´£
##è´¤
##è´¥
##è´¦
##è´§
##è´¨
##è´©
##è´ª
##è´«
##è´¬
##è´­
##è´®
##è´¯
##è´°
##è´±
##è´²
##è´´
##è´µ
##è´·
##è´¸
##è´¹
##è´º
##è´»
##è´¼
##è´¾
##è´¿
##èµ
##èµ‚
##èµƒ
##èµ„
##èµ…
##èµˆ
##èµŠ
##èµ‹
##èµŒ
##èµŽ
##èµ
##èµ
##èµ“
##èµ”
##èµ–
##èµ˜
##èµš
##èµ›
##èµ
##èµž
##èµ 
##èµ¡
##èµ¢
##èµ£
##èµ¤
##èµ¦
##èµ§
##èµ«
##èµ­
##èµ°
##èµ³
##èµ´
##èµµ
##èµ¶
##èµ·
##è¶
##è¶…
##è¶Š
##è¶‹
##è¶•
##è¶™
##è¶Ÿ
##è¶£
##è¶¨
##è¶³
##è¶´
##è¶µ
##è¶¸
##è¶º
##è¶¾
##è·ƒ
##è·„
##è·†
##è·‹
##è·Œ
##è·Ž
##è·‘
##è·–
##è·š
##è·›
##è·
##è·Ÿ
##è·¡
##è·¤
##è·¨
##è·©
##è·ª
##è·¯
##è·³
##è·µ
##è··
##è·¹
##è·º
##è·»
##è¸‰
##è¸Š
##è¸Œ
##è¸
##è¸
##è¸
##è¸ž
##è¸Ÿ
##è¸¢
##è¸©
##è¸ª
##è¸®
##è¸±
##è¸´
##è¸µ
##è¸¹
##è¹‚
##è¹„
##è¹‡
##è¹ˆ
##è¹‰
##è¹Š
##è¹‹
##è¹‘
##è¹’
##è¹™
##è¹Ÿ
##è¹£
##è¹¤
##è¹¦
##è¹©
##è¹¬
##è¹­
##è¹²
##è¹´
##è¹¶
##è¹º
##è¹¼
##è¹¿
##èº
##èº‡
##èº‰
##èºŠ
##èº‹
##èº
##èº
##èºª
##èº«
##èº¬
##èº¯
##èº²
##èºº
##è»€
##è»Š
##è»‹
##è»Œ
##è»
##è»’
##è»Ÿ
##è»¢
##è»¸
##è»¼
##è»½
##è»¾
##è¼ƒ
##è¼‰
##è¼’
##è¼“
##è¼”
##è¼•
##è¼›
##è¼
##è¼Ÿ
##è¼©
##è¼ª
##è¼¯
##è¼¸
##è¼»
##è¼¾
##è¼¿
##è½„
##è½…
##è½†
##è½‰
##è½
##è½Ž
##è½Ÿ
##è½¦
##è½§
##è½¨
##è½©
##è½¬
##è½­
##è½®
##è½¯
##è½°
##è½²
##è½´
##è½¶
##è½»
##è½¼
##è½½
##è½¿
##è¾ƒ
##è¾„
##è¾…
##è¾†
##è¾‡
##è¾ˆ
##è¾‰
##è¾Š
##è¾
##è¾
##è¾‘
##è¾“
##è¾•
##è¾–
##è¾—
##è¾˜
##è¾™
##è¾›
##è¾œ
##è¾ž
##è¾Ÿ
##è¾£
##è¾¦
##è¾¨
##è¾©
##è¾«
##è¾­
##è¾®
##è¾¯
##è¾°
##è¾±
##è¾²
##è¾¹
##è¾º
##è¾»
##è¾¼
##è¾½
##è¾¾
##è¿
##è¿‚
##è¿„
##è¿…
##è¿‡
##è¿ˆ
##è¿Ž
##è¿
##è¿‘
##è¿”
##è¿˜
##è¿™
##è¿›
##è¿œ
##è¿
##è¿ž
##è¿Ÿ
##è¿¢
##è¿¤
##è¿¥
##è¿¦
##è¿©
##è¿ª
##è¿«
##è¿­
##è¿°
##è¿´
##è¿·
##è¿¸
##è¿¹
##è¿º
##è¿½
##é€€
##é€
##é€‚
##é€ƒ
##é€…
##é€†
##é€‰
##é€Š
##é€
##é€
##é€
##é€’
##é€”
##é€•
##é€—
##é€™
##é€š
##é€›
##é€
##é€ž
##é€Ÿ
##é€ 
##é€¢
##é€£
##é€®
##é€±
##é€²
##é€µ
##é€¶
##é€¸
##é€»
##é€¼
##é€¾
##é
##é‚
##é…
##é‡
##éŠ
##é‹
##é
##éŽ
##é
##é
##é‘
##é’
##é“
##é”
##é•
##é—
##é™
##é›
##éœ
##éž
##é 
##é¢
##é£
##é¥
##é¨
##é©
##é­
##é®
##é²
##é´
##éµ
##é¶
##é·
##é¸
##éº
##é¼
##é½
##é¿
##é‚€
##é‚
##é‚‚
##é‚ƒ
##é‚„
##é‚‡
##é‚ˆ
##é‚Š
##é‚‹
##é‚
##é‚‘
##é‚“
##é‚•
##é‚›
##é‚
##é‚¢
##é‚£
##é‚¦
##é‚¨
##é‚ª
##é‚¬
##é‚®
##é‚¯
##é‚°
##é‚±
##é‚³
##é‚µ
##é‚¸
##é‚¹
##é‚º
##é‚»
##éƒ
##éƒ…
##éƒŠ
##éƒŽ
##éƒ‘
##éƒœ
##éƒ
##éƒ¡
##éƒ¢
##éƒ¤
##éƒ¦
##éƒ§
##éƒ¨
##éƒ«
##éƒ­
##éƒ´
##éƒµ
##éƒ·
##éƒ¸
##éƒ½
##é„‚
##é„‰
##é„’
##é„”
##é„™
##é„ž
##é„¢
##é„§
##é„­
##é„°
##é„±
##é„²
##é„º
##é…‰
##é…Š
##é…‹
##é…Œ
##é…
##é…
##é…’
##é…—
##é…š
##é…
##é…¢
##é…£
##é…¥
##é…©
##é…ª
##é…¬
##é…®
##é…¯
##é…°
##é…±
##é…µ
##é…¶
##é…·
##é…¸
##é…¿
##é†ƒ
##é†‡
##é†‰
##é†‹
##é†
##é†
##é†’
##é†š
##é†›
##é†œ
##é†ž
##é†£
##é†ª
##é†«
##é†¬
##é†®
##é†¯
##é†´
##é†º
##é‡€
##é‡
##é‡‡
##é‡‰
##é‡Š
##é‡‹
##é‡Œ
##é‡
##é‡Ž
##é‡
##é‡
##é‡‘
##é‡—
##é‡˜
##é‡œ
##é‡
##é‡£
##é‡¦
##é‡§
##é‡µ
##éˆ€
##éˆ‰
##éˆ
##éˆŽ
##éˆ”
##éˆ•
##éˆž
##éˆ£
##éˆ¦
##éˆª
##éˆ´
##éˆº
##éˆ¾
##é‰€
##é‰„
##é‰…
##é‰‰
##é‰‘
##é‰—
##é‰š
##é‰›
##é‰¤
##é‰´
##é‰»
##éŠ€
##éŠƒ
##éŠ…
##éŠ‘
##éŠ“
##éŠ–
##éŠ˜
##éŠœ
##éŠ¬
##éŠ­
##éŠ®
##éŠ³
##éŠ·
##éŠ¹
##é‹
##é‹…
##é‹’
##é‹¤
##é‹ª
##é‹°
##é‹¸
##é‹¼
##éŒ„
##éŒ
##éŒ˜
##éŒš
##éŒ 
##éŒ¢
##éŒ¦
##éŒ¨
##éŒ«
##éŒ®
##éŒ¯
##éŒ²
##éŒ³
##éŒ¶
##éŠ
##é‹
##é
##é›
##é¥
##é°
##éµ
##éº
##é¾
##éŽ‚
##éŽŠ
##éŽŒ
##éŽ
##éŽ”
##éŽ–
##éŽ—
##éŽš
##éŽ§
##éŽ¬
##éŽ®
##éŽ³
##éˆ
##é–
##é—
##é˜
##éž
##éŸ
##é¡
##é¢
##é¤
##é½
##é˜
##é®
##é²
##é³
##éµ
##é¸
##éº
##é‘„
##é‘Š
##é‘‘
##é‘’
##é‘£
##é‘«
##é‘°
##é‘²
##é‘¼
##é‘½
##é‘¾
##é‘¿
##é’ˆ
##é’‰
##é’Š
##é’Ž
##é’
##é’’
##é’“
##é’—
##é’™
##é’›
##é’œ
##é’
##é’ž
##é’Ÿ
##é’ 
##é’¡
##é’¢
##é’£
##é’¤
##é’¥
##é’¦
##é’§
##é’¨
##é’©
##é’®
##é’¯
##é’°
##é’±
##é’³
##é’´
##é’µ
##é’º
##é’»
##é’¼
##é’¾
##é’¿
##é“€
##é“
##é“‚
##é“ƒ
##é“„
##é“…
##é“†
##é“‰
##é“Ž
##é“
##é“›
##é“œ
##é“
##é“ 
##é“¡
##é“¢
##é“£
##é“¤
##é“¨
##é“©
##é“¬
##é“­
##é“®
##é“°
##é“²
##é“µ
##é“¶
##é“¸
##é“º
##é“¾
##é“¿
##é”€
##é”
##é”‚
##é”„
##é”…
##é”†
##é”ˆ
##é”‰
##é”‹
##é”Œ
##é”
##é”
##é”‘
##é”™
##é”š
##é”Ÿ
##é”¡
##é”¢
##é”£
##é”¤
##é”¥
##é”¦
##é”­
##é”®
##é”¯
##é”°
##é”²
##é”µ
##é”¹
##é”º
##é”»
##é•€
##é•
##é•‚
##é•‡
##é•‰
##é•Œ
##é•
##é•
##é•‘
##é••
##é•–
##é•—
##é•›
##é•œ
##é•£
##é•­
##é•¯
##é•°
##é•³
##é•¶
##é•·
##é•¿
##é–€
##é–ƒ
##é–‰
##é–‹
##é–Ž
##é–
##é–‘
##é–’
##é–“
##é–”
##é–˜
##é–¡
##é–¢
##é–£
##é–¥
##é–¨
##é–©
##é–±
##é–²
##é–¹
##é–»
##é–¾
##é—†
##é—‡
##é—Š
##é—Œ
##é—
##é—”
##é—•
##é—–
##é—˜
##é—œ
##é—¡
##é—¢
##é—¨
##é—ª
##é—«
##é—­
##é—®
##é—¯
##é—°
##é—²
##é—´
##é—µ
##é—·
##é—¸
##é—¹
##é—º
##é—»
##é—½
##é—¾
##é˜€
##é˜
##é˜‚
##é˜…
##é˜†
##é˜‡
##é˜ˆ
##é˜‰
##é˜Ž
##é˜
##é˜‘
##é˜”
##é˜•
##é˜–
##é˜™
##é˜š
##é˜œ
##é˜Ÿ
##é˜¡
##é˜ª
##é˜®
##é˜±
##é˜²
##é˜³
##é˜´
##é˜µ
##é˜¶
##é˜»
##é˜¿
##é™€
##é™‚
##é™„
##é™…
##é™†
##é™‡
##é™ˆ
##é™‹
##é™Œ
##é™
##é™
##é™•
##é™›
##é™
##é™ž
##é™Ÿ
##é™¡
##é™¢
##é™£
##é™¤
##é™¨
##é™©
##é™ª
##é™°
##é™²
##é™³
##é™µ
##é™¶
##é™·
##é™¸
##é™º
##é™½
##éš…
##éš†
##éšˆ
##éšŠ
##éš‹
##éš
##éšŽ
##éš
##éš
##éš”
##éš•
##éš˜
##éš™
##éš›
##éšœ
##éš 
##éš£
##éš§
##éš¨
##éšª
##éš±
##éš´
##éš¶
##éš¸
##éš»
##éš¼
##éš½
##éš¾
##é›€
##é›
##é›„
##é›…
##é›†
##é›‡
##é›‰
##é›‹
##é›Œ
##é›
##é›Ž
##é›
##é›‘
##é›’
##é›•
##é›–
##é›™
##é››
##é›œ
##é›ž
##é›¢
##é›£
##é›¨
##é›ª
##é›¯
##é›°
##é›²
##é›³
##é›¶
##é›·
##é›¹
##é›»
##é›¾
##éœ€
##éœ
##éœ„
##éœ†
##éœ‡
##éœˆ
##éœ‰
##éœŠ
##éœ
##éœŽ
##éœ
##éœ‘
##éœ“
##éœ–
##éœœ
##éœž
##éœ§
##éœ­
##éœ°
##éœ²
##éœ¸
##éœ¹
##éœ½
##éœ¾
##é‚
##é„
##éˆ
##é’
##é“
##é–
##é™
##éš
##é›
##éœ
##éž
##é 
##é¡
##é¢
##é¥
##é¦
##é©
##é³
##é´
##é¶
##é¼
##éž…
##éž‹
##éž
##éž
##éž‘
##éž˜
##éž 
##éž£
##éž¦
##éž­
##éŸ†
##éŸ‹
##éŸŒ
##éŸ“
##éŸœ
##éŸ¦
##éŸ§
##éŸ©
##éŸ¬
##éŸ­
##éŸ³
##éŸµ
##éŸ¶
##éŸ»
##éŸ¿
##é 
##é ‚
##é ƒ
##é …
##é †
##é ˆ
##é Œ
##é 
##é ‘
##é ’
##é “
##é —
##é ˜
##é œ
##é ¡
##é ¤
##é «
##é ­
##é °
##é ·
##é ¸
##é ¹
##é »
##é ¼
##é¡†
##é¡Œ
##é¡
##é¡Ž
##é¡
##é¡”
##é¡˜
##é¡›
##é¡ž
##é¡§
##é¡«
##é¡¯
##é¡±
##é¡´
##é¡µ
##é¡¶
##é¡·
##é¡¹
##é¡º
##é¡»
##é¡¼
##é¡½
##é¡¾
##é¡¿
##é¢
##é¢‚
##é¢„
##é¢…
##é¢†
##é¢‡
##é¢ˆ
##é¢‰
##é¢Š
##é¢Œ
##é¢
##é¢
##é¢‘
##é¢“
##é¢”
##é¢–
##é¢—
##é¢˜
##é¢š
##é¢›
##é¢œ
##é¢
##é¢ž
##é¢ 
##é¢¡
##é¢¢
##é¢¤
##é¢¦
##é¢§
##é¢¨
##é¢¯
##é¢±
##é¢³
##é¢¶
##é¢¼
##é£„
##é£†
##é£Ž
##é£’
##é£“
##é£•
##é£˜
##é£™
##é£š
##é£›
##é£ž
##é£Ÿ
##é£¢
##é£¨
##é£©
##é£ª
##é£¯
##é£²
##é£¼
##é£½
##é£¾
##é¤ƒ
##é¤…
##é¤‰
##é¤Š
##é¤Œ
##é¤
##é¤’
##é¤“
##é¤˜
##é¤š
##é¤›
##é¤ž
##é¤¡
##é¤¨
##é¤®
##é¤µ
##é¤¾
##é¥…
##é¥ˆ
##é¥‹
##é¥Œ
##é¥
##é¥‘
##é¥’
##é¥•
##é¥—
##é¥ž
##é¥¥
##é¥¨
##é¥ª
##é¥¬
##é¥­
##é¥®
##é¥¯
##é¥°
##é¥±
##é¥²
##é¥´
##é¥µ
##é¥¶
##é¥·
##é¥º
##é¥¼
##é¥½
##é¥¿
##é¦€
##é¦
##é¦„
##é¦…
##é¦†
##é¦ˆ
##é¦‹
##é¦
##é¦
##é¦’
##é¦”
##é¦–
##é¦—
##é¦™
##é¦¥
##é¦¨
##é¦¬
##é¦­
##é¦®
##é¦³
##é¦´
##é§
##é§„
##é§…
##é§†
##é§
##é§’
##é§•
##é§›
##é§
##é§­
##é§±
##é§¿
##é¨
##é¨Ž
##é¨
##é¨“
##é¨™
##é¨¨
##é¨°
##é¨·
##é©€
##é©…
##é©Š
##é©
##é©’
##é©•
##é©—
##é©š
##é©›
##é©Ÿ
##é©¢
##é©¥
##é©¬
##é©­
##é©®
##é©¯
##é©°
##é©±
##é©³
##é©´
##é©¶
##é©·
##é©¸
##é©¹
##é©»
##é©¼
##é©¾
##é©¿
##éª
##éª‚
##éª„
##éª…
##éª†
##éª‡
##éªˆ
##éªŠ
##éª‹
##éªŒ
##éª
##éª
##éª‘
##éª—
##éªš
##éª›
##éªœ
##éªž
##éª 
##éª¡
##éª¤
##éª¥
##éª§
##éª¨
##éª¯
##éª°
##éª¶
##éª·
##éª¸
##éª¼
##é«‚
##é«…
##é«‹
##é«
##é«’
##é«“
##é«”
##é«–
##é«˜
##é«¦
##é«ª
##é«®
##é«¯
##é«»
##é¬ƒ
##é¬†
##é¬
##é¬“
##é¬š
##é¬Ÿ
##é¬¢
##é¬£
##é¬¥
##é¬§
##é¬±
##é¬¼
##é­
##é­‚
##é­„
##é­…
##é­‡
##é­
##é­
##é­”
##é­˜
##é­š
##é­¯
##é­·
##é®‘
##é®¨
##é®ª
##é®­
##é®®
##é¯‰
##é¯Š
##é¯–
##é¯›
##é¯¨
##é¯°
##é¯½
##é°
##é°“
##é°­
##é°²
##é°»
##é°¾
##é±ˆ
##é±‰
##é±”
##é±—
##é±·
##é±¸
##é±¼
##é±¿
##é²
##é²ˆ
##é²
##é²‘
##é²›
##é²œ
##é²Ÿ
##é²¢
##é²¤
##é²¨
##é²«
##é²±
##é²²
##é²¶
##é²·
##é²¸
##é³ƒ
##é³„
##é³…
##é³Œ
##é³
##é³•
##é³–
##é³—
##é³
##é³ž
##é³¥
##é³©
##é³³
##é³´
##é³¶
##é´‰
##é´•
##é´›
##é´¦
##é´¨
##é´»
##é´¿
##éµ‘
##éµœ
##éµ
##éµ¡
##éµ¬
##éµ°
##éµ²
##é¶˜
##é¶©
##é¶¯
##é¶´
##é·—
##é·²
##é·¹
##é·º
##é¸š
##é¸ž
##é¸Ÿ
##é¸ 
##é¸¡
##é¸¢
##é¸£
##é¸¥
##é¸¦
##é¸¨
##é¸ª
##é¸­
##é¸¯
##é¸³
##é¸µ
##é¸½
##é¸¾
##é¸¿
##é¹‚
##é¹ƒ
##é¹„
##é¹…
##é¹ˆ
##é¹‰
##é¹Š
##é¹Œ
##é¹
##é¹‘
##é¹•
##é¹˜
##é¹œ
##é¹ž
##é¹¤
##é¹¦
##é¹§
##é¹«
##é¹­
##é¹°
##é¹³
##é¹µ
##é¹¹
##é¹¼
##é¹½
##é¹¿
##éº‚
##éº‹
##éº’
##éº“
##éº—
##éº
##éºŸ
##éº¥
##éº¦
##éº©
##éº´
##éºµ
##éº¸
##éºº
##éº»
##éº¼
##éº½
##éº¾
##é»ƒ
##é»„
##é»
##é»Ž
##é»
##é»‘
##é»’
##é»”
##é»˜
##é»›
##é»œ
##é»
##é»ž
##é» 
##é»¨
##é»¯
##é»´
##é¼‹
##é¼Ž
##é¼
##é¼“
##é¼ 
##é¼¬
##é¼¹
##é¼»
##é¼¾
##é½
##é½Š
##é½‹
##é½
##é½’
##é½¡
##é½¢
##é½£
##é½¦
##é½¿
##é¾„
##é¾…
##é¾ˆ
##é¾Š
##é¾‹
##é¾Œ
##é¾
##é¾
##é¾”
##é¾•
##é¾™
##é¾š
##é¾›
##é¾œ
##é¾Ÿ
##ï¸°
##ï¸±
##ï¸¶
##ï¸¿
##ï¹
##ï¹‚
##ï¹
##ï¹
##ï¹
##ï¹‘
##ï¹’
##ï¹”
##ï¹•
##ï¹–
##ï¹—
##ï¹™
##ï¹š
##ï¹
##ï¹ž
##ï¹¡
##ï¹£
##ï¼
##ï¼‚
##ï¼ƒ
##ï¼„
##ï¼…
##ï¼†
##ï¼‡
##ï¼ˆ
##ï¼‰
##ï¼Š
##ï¼Œ
##ï¼
##ï¼Ž
##ï¼
##ï¼š
##ï¼›
##ï¼œ
##ï¼Ÿ
##ï¼ 
##ï¼»
##ï¼¼
##ï¼½
##ï¼¾
##ï¼¿
##ï½€
##ï½†
##ï½ˆ
##ï½Š
##ï½•
##ï½—
##ï½š
##ï½›
##ï½
##ï½¡
##ï½¢
##ï½£
##ï½¤
##ï½¥
##ï½¯
##ï½°
##ï½²
##ï½¸
##ï½¼
##ï½½
##ï¾„
##ï¾‰
##ï¾Œ
##ï¾—
##ï¾™
##ï¾
##ï¾ž
##ï¾Ÿ
##ï¿£
##ï¿¥
##ðŸ‘
##ðŸ”¥
##ðŸ˜‚
##ðŸ˜Ž